#version: 0.2
Ġ t
h e
č Ċ
â Ģ
Ġ a
Ġ s
i n
Ġt he
o u
Ġ w
i t
n d
e r
Ġ o
âĢ ľ
âĢ Ŀ
h a
in g
r e
e d
Ġ b
Ġt o
Ġ c
âĢ Ļ
Ġa nd
i d
e n
l l
Ġ m
c e
Ġ l
Ġ d
o n
Ġ f
Ġs a
a s
Ġ he
i s
Ġ it
Ġo f
o w
Ġ âĢľ
a r
l e
o r
l i
Ġs he
Ġ in
ha t
a t
Ġ g
Ġ n
Ġsa id
s e
y ou
Ġb e
a n
, âĢĿ
Ġ p
A li
Ali ce
Ġ ha
Ġ you
l y
o t
Ġt h
Ġ Ġ
Ġ I
m e
v er
s t
Ġw as
Ġo n
l d
Ġ Alice
u t
Ġ h
Ġhe r
g h
! âĢĿ
Ġ e
Ġa s
ou t
e s
o o
âĢ Ķ
c h
u r
Ġt hat
Ġs o
en t
Ġ u
v e
e t
gh t
ou ld
Ġ r
it h
t le
a d
k e
Ġa t
t er
a y
Ġw ith
. âĢĿ
T he
Ġ re
t he
i r
c k
Ġha d
ver y
Ġ _
e e
Ġa n
Ġn ot
Ġa ll
Ġw h
? âĢĿ
Ġ M
r i
oo k
l f
a nd
Ġ k
Ġf or
a in
e a
i f
t o
t h
i m
i ll
Ġ H
it tle
q u
Ġd o
ow n
r y
a b
Ġu p
a l
se lf
Ġ very
Ġ D
he r
Ġthe y
e ll
Ġn e
g e
Ġ out
Ġk n
r o
p p
Ġl ittle
Ġs u
u st
i on
Ġl i
Ġs h
Ġth is
Ġb ut
Ġ j
ou se
it e
a ll
Ġs ee
Ġm e
ĠĠ Ġ
ou nd
er e
e en
o re
Ġ is
ou ght
s s
ou r
Ġl ook
Ġd own
Ġh is
Ġ qu
in k
g ain
ar d
Ġa b
Ġbe g
i ght
Ġ T
Ġw hat
Ġon e
Ġs t
Ġw he
Ġkn ow
Ġli ke
Ġa gain
Ġw ere
Ġg o
e ar
i me
Ġab out
o ck
Ġthe m
Q u
i ce
Ġw ent
W h
Ġc ould
Ġn o
o me
Ġw ould
Ġo r
Ġth ought
Qu een
a me
Ġ C
on g
c t
Ġ v
Ġof f
Ġso me
c he
in d
Ġher self
Ġ S
Ġ Queen
Ġd id
at ter
Ġha ve
Ġth ing
Ġ K
o m
u n
Ġ if
ha n
A nd
u s
er s
as t
Ġin to
t ing
Ġthe n
n e
Ġt ime
Ġsa y
Ġg r
Ġwhe n
on e
Ġthe re
re at
the r
th ing
Ġg et
ur tle
i l
ou s
nd er
Ġwh o
ĠK ing
u l
or t
an t
Ġyou r
ri ed
a re
e st
k ing
Ġm y
a ke
k ed
p h
Ġe x
a m
u ch
Ġc an
ĠM ock
G ry
Y ou
m b
Ġw or
Ġwh i
ph on
Gry phon
l ing
Ġ *
Ġs p
Ġhe ad
ĠH atter
o ice
Ġt w
Ġb y
Ġit s
is h
ĠĠ ĠĠĠ
Ġan y
Ġqu ite
ĠT urtle
ĠC at
I t
b it
u re
Ġ Gryphon
Ġa f
Ġw ay
Ġm uch
Ġth ink
ir st
ab bit
n ing
o se
Ġf e
Ġre p
Ġbeg an
Ġv oice
a ck
i g
r a
Ġc h
Ġm ore
Ġd on
âĢĶ âĢĿ
d d
w ay
âĢ ĺ
ou gh
Ġto o
i ous
Ġ (
Ġ R
Ġc on
Ġh im
s he
Ġthe ir
re e
Ġh ow
es s
oo d
l ed
o d
Ġ The
Ġo ther
Ġg ot
Ġp o
W hat
t hat
Ġa l
Ġm ad
Ġm ust
Ġf irst
is t
or m
f ore
h ing
u che
Ġa re
Ġn ow
Ġne ver
Ġj ust
Ġlook ed
ĠR abbit
uche ss
Ġs ha
Ġon ly
Ġr ound
a u
e c
v en
er p
Ġo ver
Ġc our
ĠD orm
ĠDorm ouse
b ut
p t
ĠD uchess
ro m
Ġsu ch
Ġ F
Ġ And
Ġl ar
ar ch
at e
B ut
a ce
e ver
i c
Ġb ack
Ġc ame
Ġbe en
Ġsee m
Ġwhi ch
o ot
Ġt ur
ar t
Ġg reat
Ġsh ould
O h
b e
e p
i re
Ġ Wh
Ġa r
Ġw ell
Ġm in
Ġl ong
Ġhe re
Ġp l
Ġe y
Ġu s
Ġaf ter
a g
a ve
i ly
r ow
Ġ y
Ġto ne
en ce
le as
at her
p er
x t
Ġc ur
Ġl ast
an ce
Ġp ut
ab le
o f
u ll
Ġ âĢĺ
Ġre m
ĠM arch
d s
o p
he d
as s
Ġha nd
ot her
ĠH are
om ent
o nder
v es
Ġm an
Ġl e
Ġhe ard
Ġg l
Ġbe fore
ur y
Ġr ight
im p
Ġlar ge
e nd
u p
Ġ A
Ġ L
Ġ ke
id e
Ġf rom
li ed
ĠĠ ĠĠ
Ġon ce
Ġdo or
Ġtw o
Ġmad e
e ct
Ġc at
en ed
Ġd ear
Ġf ound
at ion
ill ar
erp illar
Ġmin ut
g et
l t
n ed
v ing
Ġt al
Ġa m
Ġw a
Ġb ot
Ġm ight
Ġm oment
Ġd ay
ĠM ouse
Ġlook ing
mb er
Ġrep lied
od y
Ġey es
i ld
o ld
r u
Ġ P
Ġt ell
Ġc han
Ġm ake
on s
Ġh ur
Ġu n
Ġnot hing
Ġne ar
Ġne xt
Ġbeg in
ĠCat erpillar
h is
i gh
Ġ en
Ġt ry
Ġt han
Ġa dd
Ġw on
Ġc ome
Ġf ind
Ġth ree
Ġu nder
Ġup on
Ġthing s
Ġseem ed
Ġrem ar
T hat
w as
Ġ B
Ġa way
it ing
Ġc l
is e
le s
Ġp leas
Ġe very
Ġj ury
all y
Ġme an
ard en
Ġgo ing
Ġpo or
Ġcour se
H ow
N o
W ell
a k
b ody
e at
i ve
Ġt re
Ġw onder
or y
Ġg ood
Ġg arden
oo m
Ġso on
ri ght
ĠS he
Ġgr ow
Ġtoo k
Ġadd ed
O f
a w
a ge
i e
n g
n ot
p l
p s
Ġt ea
Ġs m
in e
Ġw r
Ġw ill
Ġf l
Ġsa me
oo l
Ġr ather
Ġwith out
The re
Ġre ad
Ġsha ll
d e
e m
u m
Ġs ort
Ġw ish
Ġo ld
re ad
Ġp e
Ġan other
Ġget ting
est ion
ure s
au se
ĠWh ite
a id
i z
o st
o ke
t ain
v ed
Ġs l
Ġw e
it y
Ġo p
Ġc ried
âĢĻ âĢĿ
Ġha r
Ġha lf
Ġha pp
me mber
Ġu se
Ġre member
Ġdo es
Wh y
Ġwor ds
Ġfe lt
Ġar m
ull y
a h
d ly
f ul
i ck
Ġt ill
ou p
re d
Ġf an
Ġhe ar
le ep
Ġp u
Ġh ouse
Ġe at
Ġe ver
Ġfe et
Ġch ild
ious ly
ec ut
Ġy et
Ġcur ious
b le
e l
f t
f ully
h o
s h
Ġ E
Ġ W
Ġt ried
Ġs et
Ġw al
er ed
Ġb r
Ġc all
Ġf in
Ġf ace
Ġbe c
Ġbe t
Ġbe ing
Ġp ro
Ġe nd
Ġe ven
ent ly
ee p
ea k
ĠH ow
Ġsu re
Ġrep eat
dd en
C ome
I f
S o
S he
a ct
a il
f or
g ed
n ow
o ll
t en
Ġt able
he re
Ġs n
Ġs ide
er tain
ha ps
re am
Ġb it
Ġc om
Ġf ee
is hed
Ġg u
Ġp art
Ġe ar
Ġas ked
The n
if f
if ul
Ġqu estion
us h
Ġwhi le
Ġsp oke
Ġminut e
. )
a ut
a ir
c l
i le
m an
s o
Ġw at
Ġl o
Ġl ow
Ġf ar
Ġsa t
Ġin ter
Ġha st
Ġr an
The y
Ġsu pp
Ġsome thing
Ġen ough
ak es
: âĢĶ
a c
a p
b st
d v
e w
g s
s w
t ime
w hat
he n
Ġa ir
Ġs it
Ġs il
er haps
re ss
Ġc ro
Ġc ertain
id ea
Ġl ess
Ġl ist
Ġd iff
Ġf oot
Ġh igh
Ġe l
ur p
Ġan g
ea l
if e
ab y
pp ed
Ġsu dden
Ġex ecut
Ġany thing
be g
Ġpl ay
Ġle ft
Ġhast ily
C H
_ ,âĢĿ
a ch
b b
d ge
n ess
o in
o nd
o es
r ough
w ith
x iously
z z
Ġ ought
Ġt ri
Ġt ake
Ġs w
Ġs een
in ah
ou d
it ed
re n
re t
Ġm or
Ġd one
Ġin de
Ġg ave
you r
ĠI t
out h
Ġkn ew
Ġdid n
ra w
Ġtur ned
get her
Ġtal k
Ġbot h
Ġsm all
um p
Ġdoes n
Ġbet ter
oll ow
Ġinde ed
N ot
T his
a pp
a king
c our
f us
h ind
i ch
l ittle
s ation
s aid
Ġ idea
he ad
Ġs iz
Ġw ant
Ġb us
Ġc ook
id ly
Ġm ay
Ġm ouse
Ġm outh
Ġl ea
Ġd ance
Ġf ollow
Ġsa w
Ġit self
li e
Ġg ame
Ġg one
Ġr u
Ġr oom
the y
ee z
ĠM a
Wh o
Ġwho le
ul t
way s
Ġcon t
od o
Ġcour t
op le
Ġtal king
Ġtry ing
Ġremar k
ĠB ill
Ġcl ose
pl ain
Ġhapp en
A P
A s
E R
H e
N ow
T ER
Y es
e er
i o
i ge
i ers
j est
n o
w h
y ing
Ġ imp
Ġa c
Ġa dv
Ġs c
Ġs ound
it her
âĢľ _
Ġb aby
Ġc reat
id d
Ġl et
Ġl ear
Ġd ire
Ġn ame
Ġbe aut
Ġp ass
Ġp erhaps
Ġas k
Ġwh is
th ink
qu et
ab out
ĠD odo
her self
Ġsh ri
Ġj oin
ard s
Ġst ill
Ġwhe re
ear s
Ġwould n
che s
ĠS o
ort ant
Ġsp eak
Ġaf ra
ĠThe re
erp ent
Ġus ed
Ġhand s
Ġke pt
Ġcat s
Ġam ong
Ġchan ge
Ġhur ry
Ġbegin ning
Ġpleas e
Ġcall ed
Ġfin ished
Ġcertain ly
Ġel se
urp r
Ġsudden ly
CH AP
Ġsiz e
ige on
jest y
Ġdire ct
Ġafra id
CHAP TER
H ere
_ ,
_ âĢĿ
d ay
f ort
i ct
l p
o x
o ves
r ink
t ed
u ed
u ck
w o
w ould
Ġt r
Ġt im
Ġa pp
Ġs leep
Ġthe se
Ġw it
en se
Ġl ife
Ġd e
Ġd ou
Ġd eep
Ġd eal
Ġf all
is ed
is ter
ar k
Ġin st
at es
Ġbe hind
ver sation
Ġwas n
ch ing
Ġre as
Ġre st
ea red
th is
ĠD inah
che d
ĠS oup
Ġsay ing
Ġsha r
oot man
Ġtur n
end ed
Ġminut es
Ġhur ried
Of f
Ġpe ople
Ġhar dly
Ġpu zz
ĠHow ever
Ġsn eez
Ġsupp ose
Ġlist en
ĠMa jesty
O n
W e
e x
e ven
f ter
l ook
o or
s p
s ome
u mb
w n
Ġ But
Ġt ail
Ġt ears
Ġs ea
Ġs to
Ġs ig
Ġs urpr
Ġs ister
Ġo wn
en er
Ġm o
Ġm ind
Ġm atter
Ġf ell
Ġhe dge
ĠâĢľ âĢĶ
le t
Ġg ener
Ġbe lie
Ġp ie
Ġha ving
Ġth rough
Ġe ag
Ġre ally
the m
ir ds
Ġan sw
Ġan xiously
ri ly
ĠH e
Ġsh out
Ġqu eer
Ġgr in
ant ly
Ġwor d
Ġtw ink
pt ed
Ġtur ning
Ġman y
Ġgl ad
Ġke ep
Ġwa ited
ĠP igeon
Ġop ened
Ġwal ked
Ġbec ause
ress ed
Ġexecut ion
Ġtri al
Ġwit ness
Ġdou b
Ġreas on
Ġeag er
, )
D o
a le
a gain
c on
c om
f f
g ot
i es
i am
k y
k now
l ow
n er
n ave
p o
r own
r oom
s id
s ent
Ġs ing
Ġs ight
in ued
er ing
er ent
Ġo pp
âĢľ âĢĶ
ha d
ha nd
Ġb ook
Ġb right
Ġm ost
Ġm akes
Ġd ist
Ġd ec
Ġf ur
at i
Ġg ive
Ġbe st
Ġp ig
Ġp ool
Ġha ll
Ġh old
oo p
Ġso ld
Ġr un
Ġnot ic
Ġwh y
pp y
pp er
Ġwhe ther
Ġoff ended
Ġwor k
Ġhead s
Ġthink ing
Ġfe w
Ġal ways
au ght
Ġpl ace
row d
Ġgl oves
imp ortant
ĠĠĠĠ ĠĠĠĠ
Ġbot tle
ru pted
Ġremar ked
aw s
Ġop en
Ġchild ren
Ġrepeat ed
Ġsit ting
Ġsil ence
Ġless ons
Ġcont inued
Ġlear n
Ġshar p
Ġbelie ve
Ġshout ed
) ,
W ould
W hen
c ed
c ould
c up
g o
g er
g ing
i et
l s
m ed
r ing
t one
v id
Ġ N
Ġ ver
Ġ im
Ġ Oh
Ġs imp
Ġs erpent
ou n
Ġw ood
re w
Ġb at
Ġb ro
Ġto gether
Ġc he
Ġc ar
Ġc are
Ġc rowd
Ġl ying
Ġd is
Ġd ream
Ġf right
Ġf act
Ġhe lp
is s
ow ly
le ss
li ght
Ġn ice
an y
Ġp ers
Ġha s
Ġth ose
st and
Ġh op
Ġas leep
âĢĶ âĢĺ
Ġr a
Ġr ose
Ġr ate
Ġat t
the n
Ġwh ite
Ġwh iting
ill iam
Ġsu b
ion s
Ġli ve
Ġsh ook
Ġj ump
Ġagain st
Ġgo ld
Ġcould n
Ġno se
Ġor d
ind ow
ĠK nave
un ity
ne y
ort unity
Ġyour self
Ġex plain
Ġcon fus
Ġcon versation
ĠF or
ĠF ootman
ate ly
art s
ire d
Ġle ast
Ġwa iting
Ġnear ly
Ġmean ing
Ġtre mb
Ġgrow ing
Ġread y
Ġsl ates
Ġsl owly
Ġhar d
Ġfan c
act ly
Ġfee ling
Ġpart y
ush room
Ġlo bst
Ġinter rupted
ac le
Ġcro quet
Ġdiff erent
Ġang rily
beg an
Ġmor al
Ġfollow ed
Ġcreat ures
idd le
Ġbeaut iful
Ġwhis per
Ġtim idly
Ġpuzz led
Ġhedge ho
Ġdoub t
Ġopp ortunity
Ġsold iers
Ġnotic ed
. âĢĻâĢĿ
? _âĢĿ
I n
J ust
T urtle
_ .âĢĿ
a v
c an
e k
g r
g row
h ow
i x
i ed
j ect
k en
m n
m ost
o y
s ay
t s
t ur
u e
u mber
Ġ O
Ġ our
Ġt ru
Ġt ired
he sh
Ġs ong
in ess
it s
er y
ha ve
Ġb reat
Ġto p
Ġc le
id ed
Ġm ar
Ġm iddle
ce ss
Ġd en
Ġd ry
Ġd read
Ġd raw
on ly
as ter
ar y
le mn
an ch
Ġha ir
ut e
Ġe ach
Ġe ither
âĢĶ âĢľ
ch ool
Ġso lemn
ent ure
et ch
the ir
Ġhad n
very thing
Ġk ind
Ġfor got
ea king
im ney
ĠH ear
al king
Ġne ck
Ġsh ut
Ġsh oes
Ġis n
ss i
ard on
Ġst ood
Ġst ory
Ġgo es
ock et
Ġv enture
Ġgr own
ul ar
Ġex cl
am ing
Ġwor ld
Ġch in
Ġcon sid
Ġlar ger
ic ult
be fore
ĠWh y
Ġar g
Ġey e
Ġus u
leas e
of f
Ġman age
Ġgl ass
end ing
up id
Ġke y
ons ense
ĠB ea
Ġevery thing
Ġtre es
Ġgarden ers
ng l
em per
Ġpu ppy
ĠE ngl
ĠW illiam
Ġcom ing
Ġfee l
Ġdiff icult
cour t
Ġbus iness
Ġlea ve
io l
Ġapp eared
Ġde light
Ġgener ally
Ġpie ce
Ġansw er
Ġeager ly
Ġdist ance
ati ently
vid ence
Ġgold en
hesh ire
D on
L et
W ill
_ âĢĶ
a im
b s
b ly
b ox
d own
f e
f rom
g l
l ite
l ves
l anch
m p
m en
n y
o ly
o bst
p ig
r on
r an
s it
s ide
t ory
w ill
w een
w ards
Ġ ed
Ġ hat
Ġ You
Ġ No
Ġs ent
Ġs ir
Ġs ec
Ġs ever
Ġs igh
Ġs chool
in ea
ou ble
Ġw indow
it ten
Ġo h
re sent
Ġb l
Ġto ld
Ġc r
Ġc ut
id es
Ġm aking
Ġm ushroom
Ġl ate
Ġl oud
Ġd ro
Ġf our
as h
is on
or row
Ġin ches
Ġg ir
Ġn onsense
se t
Ġbe at
Ġp ardon
Ġha ven
Ġyou th
Ġth ough
ut ter
Ġh our
Ġh un
Ġe g
Ġe vidence
oo f
ur n
ent ures
ee k
ri z
to gether
im al
ry ing
ab el
Ġkn ee
ro ss
Ġsh ow
Ġbut ter
Ġme lanch
Ġqu iet
Ġbeg un
Wh ich
ĠC heshire
Ġtime s
Ġgr ave
thing s
ig n
Ġch imney
Ġhim self
Ġhow ever
Ġother s
Ġpo lite
Ġal most
but ter
ĠF ive
Ġmin e
ag ed
ĠâĢĺ _
ĠA n
ĠL ory
old ed
Ġpleas ed
Ġwr itten
Ġfl aming
em pt
Ġpe pper
iz ard
Ġhapp ened
Ġarm s
Ġfin ish
Ġgu ess
Ġgu inea
Ġwat ch
Ġlo ve
Ġinter est
Ġsil ent
Ġcro ss
Ġsw im
Ġac c
Ġsc ream
Ġsneez ing
Ġsurpr ised
Ġexecution er
Ġdec ided
Ġrun ning
Ġver se
Ġbro ken
Ġfright ened
Ġsub ject
Ġlobst ers
Ġhedgeho g
Ġmar ked
Ġdread fully
ĠHear ts
Ġexcl aim
ĠEngl ish
Ġmelanch oly
Ġpolite ly
Ġexclaim ed
! âĢĻ
A t
A re
A ll
F or
I I
O ne
S t
V ery
a per
c o
d o
d u
d ign
e ly
e ad
e verything
f ish
f ect
g ar
g es
h ot
i bb
j ust
l ong
m ent
o ved
p e
s c
s u
s ha
s ing
s ity
t e
t ell
t il
t wo
v ous
w e
w ent
w ell
w onder
w ise
w here
w hen
Ġ V
Ġ ent
Ġt e
Ġt en
Ġt ree
Ġt aking
Ġt arts
Ġt emper
Ġs qu
Ġs han
Ġs ky
in y
er vous
ing er
ed s
Ġb ow
Ġb read
Ġb ox
Ġb irds
Ġc as
Ġm utter
ce ed
ce pt
Ġd are
Ġd rink
Ġd rew
Ġf un
Ġf ull
as ily
Ġhe ight
Ġof ten
ĠâĢľ _
ar ing
li ke
Ġin v
Ġin dign
at ch
Ġg re
Ġn ervous
Ġp r
Ġp ack
Ġp air
Ġp ict
Ġyou ng
Ġth row
ĠI n
ut iful
Ġh ome
Ġas king
ur or
Ġr at
Ġr abbit
Ġr oof
Ġre ach
Ġan imal
Ġnot ice
ri end
ook ah
Ġk id
Ġfor get
th ought
Ġne w
Ġsu l
Ġli ked
Ġsh rink
Ġj u
Ġj uror
Ġme ant
Ġhis tory
ĠT hat
Ġst ay
Ġst and
Ġst ick
Ġv an
Ġv iol
Ġsome body
Ġgr un
il ence
Ġmy self
Ġex p
Ġex t
Ġex actly
Ġtw ice
Ġrep ly
ĠThe y
Ġal ong
Ġal together
ec ause
oot s
Ġpl an
Ġcur io
ĠA s
ĠL et
ĠL izard
Ġwa ving
ru mb
Ġchan ged
Ġunder stand
Ġevery body
Ġmean s
Ġtre acle
Ġwonder ing
Ġwr ite
Ġwr iting
um ent
Ġremember ed
Ġwal k
Ġbec ome
Ġpro cess
Ġear s
air s
Ġwat er
time s
Ġang ry
bb ing
Ġsw am
Ġmor ning
raw ling
Ġhappen s
Ġimp atiently
Ġac ross
Ġsound ed
Ġshri ll
Ġshri ek
Ġdirect ion
fort able
Ġtr ouble
Ġsleep y
Ġinst antly
look ing
Ġsto p
Ġsig hed
Ġtwink le
Ġsimp le
Ġpers on
Ġjump ed
Ġtremb ling
Ġfanc y
Ġwhisper ed
Ġforgot ten
Ġarg ument
Ġusu al
obst er
ran ge
Ġsec ond
Ġeg gs
riz es
Ġquiet ly
Ġflaming o
Ġinterest ing
Ġcas e
Ġcurio sity
! _âĢĿ
) .
? âĢĶ
A h
A n
B e
B y
C all
E x
F irst
H old
M y
P lease
S ure
_ .
a z
a fter
b ow
b ook
b irds
b ecause
c c
c i
c ome
c han
c op
d id
d on
d ict
d oor
e xt
g li
h or
i p
l as
l ar
m s
m y
m in
m ust
m oment
n ear
o h
o s
o king
p ed
p ie
p ocket
r ay
r un
t ake
t ree
u c
u nder
u de
u ff
v il
w r
w he
w or
Ġ G
Ġ âĢĻ
Ġ Qu
Ġ What
Ġt er
Ġt ast
Ġt ak
Ġt aught
Ġt iny
Ġa ge
Ġs in
Ġs oup
Ġs ides
Ġs orrow
in t
Ġw ow
Ġw and
Ġw ild
Ġw eek
it al
it che
it ude
Ġo b
re m
Ġb ar
Ġb an
Ġto ss
Ġto ng
Ġc or
Ġc ap
id er
ll e
Ġm ice
Ġm us
Ġl ad
Ġl ay
Ġl ock
Ġd es
Ġd ish
Ġd ark
on our
Ġf ly
Ġf ear
Ġf ast
Ġf ig
Ġf ire
Ġf rown
Ġf etch
Ġf inger
Ġf riend
Ġsa dly
ar re
ar se
le ad
or po
at ur
Ġn ur
Ġn ight
Ġn one
Ġn ine
Ġn ibb
se a
se lves
an c
an g
an sw
an xiously
Ġp atter
Ġp eep
Ġp ret
Ġp ale
Ġp resent
Ġp orpo
ot e
Ġh o
Ġh ookah
Ġh onour
Ġher s
ur d
Ġso bs
ent h
ent y
ad ri
the re
ĠM abel
Ġk itche
ain t
ain ed
to m
th ough
th rough
im ble
qu estion
Ġdo ing
ĠD o
Ġkn ock
ro ll
pp ing
all ow
Ġqu ick
ĠT his
ĠT wo
Ġst ra
Ġst upid
Ġst range
Ġno body
Ġthought fully
ĠC ome
Ġoff ic
Ġsome times
ĠS oo
us ed
ast s
ne ver
Ġsay s
Ġgr ass
Ġwor th
Ġsp read
Ġsp eaking
Ġtw el
ig ging
Ġ( âĢľ
Ġcon cl
ĠThe n
Ġpo in
Ġal oud
ĠF ather
ic ular
Ġseem s
oot iful
Ġshould n
Ġshould er
Ġar ches
Ġy er
Ġman aged
ĠA t
ĠL obster
Ġbot tom
Ġchan ce
Ġun com
Ġun til
Ġnear er
Ġen cour
les cop
Ġjury men
not hing
Ġtea cup
Ġsm il
Ġwr ong
Ġhear ing
ho le
sh ould
Ġset t
Ġbr ing
Ġface s
Ġbet ween
Ġpart icular
Ġquestion s
Ġsupp ressed
ap e
Ġexecut ed
beg in
Ġplay ers
with out
ren ch
ret ched
Not hing
Ġbus ily
Ġmouth s
Ġlea ves
Ġru le
wh y
wh ile
wh ich
Ġadv entures
Ġcreat ure
Ġpass ed
Ġde ad
Ġdeep ly
Ġfall en
ex ecut
Ġsurpr ise
Ġfell ow
Ġtwink ling
con fus
Ġsharp ly
med i
Ġim medi
Ġbat s
Ġcar ried
Ġcrowd ed
any thing
Ġhop e
Ġord ered
gr ound
say ing
tur ned
Ġtru e
Ġbreat h
Ġcle ar
Ġsolemn ly
ssi ble
Ġventure d
ĠBea u
Ġdifficult y
pig s
Ġsever ely
Ġdro pped
Ġgir l
Ġhour s
ĠAn n
Ġscream ed
Ġdecided ly
fect ly
Ġbow ed
Ġindign antly
Ġgre en
Ġshrink ing
Ġju dge
Ġjuror s
Ġvan ished
Ġgrun ted
Ġexp ect
rumb s
Ġprocess ion
gli f
lar ge
min ute
Ġtak en
Ġsin ce
Ġtong ue
Ġcor ner
Ġcap ital
Ġfrown ing
atur al
Ġporpo ise
adri lle
Ġkitche n
Ġstra ight
Ġtwel ve
! âĢĶ
! âĢĻâĢĿ
. âĢĻ
; âĢĿ
A fter
B ill
C ons
D id
D own
D uchess
D inah
E very
F ootman
G ive
H ave
I N
I s
M ouse
N ever
O R
P erhaps
R abbit
S u
S oo
T is
T han
T ake
T urn
Y et
a used
b o
b y
b est
c at
c all
c ame
c us
c il
c ceed
d i
d is
d ear
d oes
e y
e ed
f l
f ee
f our
g g
g ry
g reat
g ra
g ood
g ged
i les
i vil
k s
k ers
l are
m er
m ing
m on
m uch
m ine
n ers
o on
o ve
o ked
o ssible
p u
p an
p ro
p leas
p ass
r ather
t is
t ea
t alking
u ous
v age
w l
w ink
w ho
w alking
x ious
y et
Ġ X
Ġ Off
Ġ On
Ġt uck
Ġt umb
he s
he lp
Ġa g
Ġa li
Ġs li
Ġs ense
Ġs ix
in ter
ou dly
it ted
er day
ing s
re p
ed n
Ġb low
Ġb oy
Ġb urn
Ġb oots
Ġto es
Ġc o
Ġc ha
Ġc and
Ġc ry
Ġc ust
Ġc ake
Ġc ause
Ġc akes
Ġc ards
Ġc rown
Ġc aught
Ġc rumbs
Ġc ivil
âĢĻ !âĢĿ
id ent
en cil
Ġm is
Ġm ent
Ġm et
Ġm ark
Ġm iss
Ġm aster
Ġm iles
Ġl ed
Ġl au
Ġl ost
Ġl oudly
Ġd in
Ġd ot
Ġd ri
Ġd ull
Ġf ight
Ġf ish
Ġf ree
Ġf air
Ġf ond
Ġf aster
Ġf ron
Ġf olded
Ġsa d
Ġsa vage
as y
Ġhe ld
is ing
ĠâĢľ âĢĺ
ar m
le w
or d
or to
or us
li ged
at h
at er
at ed
Ġg ently
Ġn umber
Ġn atural
se ver
se em
Ġbe head
Ġbe low
Ġbe long
an ther
an ation
Ġp in
Ġp er
Ġp un
Ġp rom
Ġp aw
Ġp ity
Ġp ick
Ġp ressed
Ġp aws
Ġp ocket
Ġp aper
Ġp rizes
Ġp lead
Ġha ng
Ġth imble
Ġwas hing
Ġh umb
Ġe ff
Ġe sc
Ġe asily
oo se
âĢĶ âĢĻâĢĿ
ch ild
ur ried
ent ed
Ġu ne
Ġr ing
Ġr id
Ġr ace
ad d
ad ing
ke y
Ġre al
Ġre lie
Ġre sp
Ġre co
ck ed
ee ch
Ġnot ion
ĠM E
ĠM ary
ri ms
Ġk ill
Ġk ick
ain ting
th ree
ill ed
ĠH er
qu ite
Ġdo g
Ġdo gs
al ways
ĠD on
ĠD rawling
Ġne at
Ġne edn
Ġout side
ro g
ro quet
ro du
pp ose
Ġsu it
Ġsu cceed
ion ed
Ġli very
Ġli ved
Ġsh ore
Ġsh ort
Ġme et
our n
Ġqu arre
Ġab s
Ġab ove
ĠT ell
ĠT ime
ĠT orto
Ġst art
Ġst aring
Ġst airs
Ġst uff
Ġlike ly
Wh ile
ĠC au
ĠS ha
ĠS aid
ĠS even
un ate
un com
un important
Ġgr ound
ant age
est s
est erday
Ġex cept
am p
Ġsp ect
Ġsp las
Ġmuch ness
Ġvoice s
Ġch oked
Ġch orus
ough ly
Ġhow ling
led ge
Ġpo sit
Ġal as
Ġal one
Ġmust ard
ist ake
Ġsha king
Ġcour age
ĠF irst
ĠF rench
Ġshould ers
ĠWh o
Ġlong er
ag ing
ag let
Ġy aw
Ġhand ed
other wise
Ġle gs
end s
ĠA fter
ĠL at
ĠL ong
Ġcat ch
Ġdear s
Ġwa ist
ĠP anther
Ġhur t
Ġun fort
Ġbegin s
Ġfind ing
Ġremar king
Ġcl os
pl anation
Ġfl oor
Ġread ing
Ġsort s
Ġsl ate
el s
ĠE aglet
ĠW here
Ġbr ought
Ġpro per
Ġrepeat ing
Ġsn ail
Ġgu ests
Ġear th
aut iously
cl ock
so on
ac les
ress ing
Ġless on
Ġfoot man
Ġel bow
Ġsw allow
Ġsmall er
app ear
app eared
Ġwant ed
Ġfollow s
Ġru les
Ġremark s
Ġimp ortant
Ġimp ossible
Ġsound s
Ġbeaut if
Ġpass ion
Ġpass age
Ġjoin ed
Ġdirect ions
_, âĢĻâĢĿ
Ġtim id
Ġinst ance
Ġinst ead
Ġturn s
Ġlisten ing
On ce
even ing
look ed
Ġtail s
Ġsig n
Ġmo ve
Ġmo ving
Ġmo ved
Ġgener al
them selves
Ġansw ered
Ġgrin ned
con versation
po ison
Ġdec lare
Ġhold ing
go ing
Ġche cked
Ġhop ing
Ġrose s
Ġatt ending
Ġjump ing
Ġord er
Ġconfus ed
Ġconfus ion
av y
grow ing
ix ed
tur ning
ĠO wl
Ġtru mp
Ġbreat he
ssi bly
Ġconsid ered
Ġconsid ering
ĠBea utiful
_âĢĶ âĢĻ
fe lt
gl ass
Ġed ge
Ġsent ence
Ġcr ash
Ġhun ting
Ġhun gry
Ġgrave ly
empt uous
Ġguess ed
Ġacc oun
Ġverse s
Ġte lescop
Ġmutter ing
Ġpr ison
Ġpict ures
Ġanimal s
Ġforget ting
Ġsul ky
Ġviol ently
chan ged
pie ce
ĠQu adrille
Ġob liged
Ġtoss ing
Ġmus ic
Ġlad y
Ġfig ure
Ġnur sing
Ġnibb ling
Ġpatter ing
Ġpeep ed
Ġho arse
Ġoffic ers
Ġpoin ting
Ġuncom fortable
Ġsett led
Ġimmedi ately
Ġexpect ing
Cons ider
Every body
Than k
call ed
pu zz
wink le
Ġtuck ed
Ġali ve
Ġcand le
Ġment ioned
Ġdot h
Ġplead ed
Ġhang ing
Ġeff ect
Ġesc ape
Ġresp ect
Ġsucceed ed
ĠTorto ise
ĠCau cus
Ġspect acles
Ġunfort unate
Ġtrump et
) :
) ;
) âĢĶâĢľ
, âĢĻ
. âĢĶ
? âĢĻâĢĿ
A R
A dv
B ea
C an
D R
D oes
E verything
F ound
G o
G et
H E
K ing
K eep
L ast
M ay
M arch
N D
P re
P oor
R ea
S h
S p
S ome
S oup
S erpent
S even
S ilence
T re
T ell
T wo
T winkle
U S
U n
U p
U gh
U glif
W ow
W ith
W ake
W here
Y our
_ :
_ âĢĶâĢĿ
a x
a is
a ves
a ult
b ur
b our
b ish
b ack
b read
b aby
c er
c ha
c ar
c le
c or
c ur
c reat
c roquet
d w
d ed
d es
d ream
d run
e ither
e pper
f r
f all
f ound
f ace
f right
f low
f its
f etch
f olded
f anc
f illed
g ly
g hed
g ular
h im
h ist
h urried
i er
i li
i ver
i pp
i ving
i pped
j ury
j ump
k n
k es
k ind
k ily
l id
l and
l ater
m or
m akes
m aking
m ushroom
m oved
m mer
m itted
n at
n es
n ur
n am
o ver
o be
o cc
o gra
p r
p ot
p ers
p ast
p ick
p aws
p ute
p lease
p resent
p ainting
r ith
r ab
r am
r ance
r up
s m
s n
s al
s ort
s ure
s old
s ently
s ult
s urpr
s ilence
t r
t w
t se
t ly
t ill
t een
t ast
t ling
t ail
t emper
t ip
t rodu
u ce
u ally
u ded
v o
v ent
v iol
w ere
w ant
w indow
w atch
y st
z e
Ġ ve
Ġ ill
Ġ Now
Ġt ou
Ġt all
Ġt reat
Ġt urtle
Ġt akes
Ġt ale
Ġa x
Ġa ct
Ġa go
Ġs e
Ġs k
Ġs er
Ġs en
Ġs ell
Ġs ending
in ing
in es
in ary
ou red
Ġw et
Ġw ink
Ġw om
Ġw ag
Ġw ide
Ġw ine
Ġw eak
Ġw retched
it ation
it ions
it ated
nd o
er or
er able
er ret
er ci
Ġo cc
âĢľ âĢĻ
ha lf
ha pp
ha ven
ha ppy
ha med
re me
re ak
Ġb ad
Ġb ir
Ġb ite
Ġb ody
Ġb ark
Ġb lew
Ġb reak
Ġto nes
Ġc ir
Ġc au
Ġc art
Ġc up
Ġc ool
Ġc oup
Ġc oll
Ġc ond
Ġc rying
Ġc aused
Ġc rims
Ġc autiously
âĢĻ âĢĶ
en g
en ing
en ough
en ny
ll y
ll ing
ll ent
Ġm a
Ġm on
Ġm ere
Ġm il
Ġm ess
Ġm od
Ġm ile
Ġm eek
Ġm ourn
Ġm istake
Ġm ixed
ce llent
Ġl aw
Ġl ine
Ġl aid
Ġl ap
Ġl az
Ġd anc
Ġd igging
Ġd ais
on ce
on qu
Ġf it
Ġf if
Ġf am
Ġf ather
Ġf ine
Ġf oun
Ġf av
Ġf ash
Ġf aint
Ġsa nd
Ġsa lt
Ġsa ng
Ġsa uce
as ion
as hed
Ġhe art
is it
is es
is able
ow er
ar is
ar row
le gged
le aves
or ter
or th
or oughly
or car
li ves
li ving
Ġin k
Ġin trodu
at ching
Ġg idd
Ġg oose
Ġg iving
Ġn or
Ġn arrow
se c
se e
se mb
Ġbe ar
Ġbe sid
Ġbe asts
an ing
an ter
an ting
an ches
an ced
Ġp at
Ġp ur
Ġp arch
Ġp ull
Ġp ause
Ġp atiently
Ġp encil
Ġp anting
ot ting
ot ic
Ġth ro
Ġth ous
Ġth oroughly
ver ed
ver se
ver dict
st ing
st ly
st ant
st ep
st upid
Ġwas h
Ġwas ting
ld ron
ut h
Ġh it
Ġh ot
gh ing
Ġe le
Ġe asy
Ġas hamed
Ġas semb
es ides
ur red
Ġso ft
Ġso bbing
Ġu gly
Ġu ndo
et ween
Ġr o
Ġr ow
Ġr ust
Ġr ush
Ġr ap
Ġr idd
Ġr oy
ad v
ad es
Ġat om
ter n
ter s
ter ed
Ġwith in
The se
Ġre d
Ġre turned
ir ring
Ġan no
Ġan xious
Ġnot e
ĠM iss
ĠM orcar
ri a
ri er
to e
to p
im ent
qu eer
ab ly
Ġup set
ĠD uck
ell ed
Ġne igh
ge ho
Ġkn ot
Ġkn ife
Ġsu n
Ġsu mmer
Ġli e
Ġli ves
Ġsh ill
Ġsh orter
Ġthis tle
Ġj ar
Ġj aws
ound s
ĠT h
Ġwhat ever
Ġst ru
Ġst oop
Ġst retched
Ġst amp
Ġknow s
Ġknow ing
Ġknow ledge
ock ing
Ġno ise
Ġthought s
ĠC rab
ĠC onqu
Ġv ar
Ġoff er
Ġsome where
om ing
un g
han tly
us ion
ers ault
ne xt
ne ath
ne stly
one ly
Ġwho se
ul ous
Ġyour s
are d
ph y
Ġex per
Ġex planation
Ġex cellent
am ine
Ġwor se
ling ing
Ġsp oon
Ġsp eech
Ġtw enty
ure d
Ġfe ather
ra ce
ra ct
ra ord
Ġch oice
Ġch ose
Ġcon cer
Ġcon stant
Ġpo ssibly
Ġal read
Ġal so
Ġal arm
ist ed
ist ling
fore head
Ġnow here
Ġsha ped
ic ation
art y
be hind
ire ly
ĠWh ile
ĠWh ich
Ġar ound
Ġlong ed
Ġpl ate
Ġpl ates
Ġus ing
Ġafter wards
ag es
ag ine
row ful
Ġy esterday
per haps
per fectly
Ġcur led
Ġlast ed
Ġput ting
Ġrem ain
Ġrem oved
Ġrem ained
hed geho
onder land
Ġman ner
Ġle aning
up on
up set
ĠA ll
Ġdoor s
ect ed
Ġcat ching
ation s
Ġday s
ĠP at
ĠP ray
ĠP aris
Ġtell s
Ġtell ing
Ġchan ging
Ġchan ges
Ġun pleas
Ġun folded
Ġun happy
Ġcome s
Ġunder tone
Ġunder neath
Ġcl ock
Ġcl aws
Ġpleas ure
How ever
No body
eat ed
ive ly
Ġtre ading
Ġwonder ful
Ġgrow l
ie f
pl ace
pl enty
Ġsm ile
Ġwr ote
Ġfl at
Ġfl app
Ġpe bb
tain s
Ġuse ful
ĠW ith
ĠW hen
Ġwal king
Ġbr own
Ġbr anches
Ġbec ame
Ġpro ved
Ġpro du
Ġpro ceed
Ġeven ing
Ġsn atch
ertain ly
Ġcom p
Ġcom fort
Ġcom fits
Ġfee ble
Ġear ls
Ġear nestly
ush ion
man y
Ġwat ching
Ġwat ched
ac c
Ġfoot step
Ġang er
Ġplay ing
CH OR
bb ed
Ġtri ck
Ġtri ump
ret ching
your self
Ġsmall est
cour se
Ġwant s
Ġbus y
Ġru de
Ġru bbing
Ġcont emptuous
Ġcourt iers
Ġremark able
Ġadv ance
Ġadv antage
Ġadv isable
Ġsc roll
Ġlet ter
Ġlear ning
Ġname s
Ġwhis kers
Ġwhere ver
Ġdirect ed
Ġdirect ly
day s
uck ily
Ġtr otting
Ġtr uth
Ġapp les
Ġhurried ly
Ġpuzz ling
Ġsneez e
Ġsneez es
On ly
ex amine
sp eak
some thing
umb led
umb ria
Ġsto pped
Ġsig ned
Ġsister s
Ġmatter s
let s
Ġkeep ing
con t
sent ence
Ġsing ing
Ġsing ers
Ġmost ly
Ġdist ant
Ġfur ther
Ġfur row
Ġpig s
aught er
Ġplace s
Ġopen ing
Ġlearn t
cup bo
ĠN orth
Ġver dict
Ġsimp ly
Ġserpent s
Ġbro ke
Ġche ered
Ġcar rying
Ġcare s
Ġcare fully
Ġdis hes
Ġnice ly
Ġpers isted
Ġhas n
âĢĶâĢĺ _
Ġra ven
Ġra ving
Ġra ised
Ġatt empt
Ġconfus ing
Ġtremb led
Ġfanc ied
Ġfeeling s
Ġlobst er
Ġhedgeho gs
Ġdoubt ful
Ġdoubt fully
gr and
Ġden y
Ġden ied
Ġkind ly
Ġshut ting
Ġusu ally
Ġdelight ed
Ġdelight ful
Ġpiece s
gl oves
Ġed itions
Ġhat e
Ġsever al
Ġsigh ing
Ġbl asts
Ġgir ls
Ġbeat ing
Ġshow ing
Ġlove ly
Ġcross ed
Ġswim ming
Ġacc ident
co at
pe ople
su dden
te enth
wonder ing
ĠV II
Ġent ang
Ġent irely
Ġsqu eez
Ġsqu eaking
Ġmutter ed
Ġfun ny
like ly
Ġinv ited
Ġinv itation
Ġthrow ing
Ġrat tling
Ġsul kily
Ġext reme
Ġext raord
Ġperson al
Ġsecond ly
Ex plain
Ex actly
hor ity
my self
near ly
run ning
uc umber
wr iting
whe ther
wor th
Ġtast ed
Ġwand ering
Ġwild ly
rem ark
Ġbar rowful
Ġban k
Ġlock s
Ġdes per
Ġfriend s
answ er
Ġknock ing
roll ed
Ġquick ly
Ġconcl uded
Ġconcl usion
Ġencour aging
Ġsmil ing
Ġsmil ed
Ġbring ing
begin ning
execut ed
confus ion
IN K
Su ppose
by e
does n
ey es
Ġtumb ling
Ġag ree
Ġsli pped
rep lied
Ġco ax
Ġcust ody
Ġmis erable
Ġmiss ed
Ġdin ner
Ġfron t
sever al
seem ed
Ġbehead ed
Ġbelong s
Ġpin ched
Ġper fectly
Ġpick ed
Ġhumb ly
Ġune asily
Ġrelie f
Ġreco vered
Ġneat ly
Ġquarre lling
Ġabs urd
Ġstart ed
Ġsplas hing
Ġposit ion
Ġyaw ning
ĠLat itude
ĠLong itude
Ġwaist coat
Ġclos ed
Ġbeautif ully
Ġsign if
Ġtelescop e
Ġprison er
puzz ling
Bea utiful
DR INK
Pre sently
Rea lly
Sp eak
Tre acle
Uglif ication
bish op
creat ures
dw in
drun k
fr ame
fanc y
hist ory
nur se
nam ented
occ asion
ogra phy
pr oud
rup ting
sold iers
tw ist
temper ed
Ġtall er
Ġturtle s
Ġsen sation
Ġwom an
erret s
erci a
Ġocc urred
Ġbir d
Ġcau ldron
Ġcoll ected
Ġcrims on
enny worth
Ġmon th
Ġmere ly
Ġmil k
Ġmess ages
Ġmod er
Ġmeek ly
Ġdanc ing
Ġfoun tains
Ġfash ion
Ġsauce pan
Ġgidd y
Ġbesid es
Ġpur ring
Ġparch ment
Ġthro at
Ġthous and
Ġassemb led
Ġrap idly
Ġridd les
Ġroy al
Ġanno y
Ġneigh bour
Ġstru ck
Ġstamp ing
ĠConqu eror
Ġexper iment
Ġconcer t
Ġalread y
Ġunpleas ant
Ġpebb les
Ġfootstep s
CHOR US
Ġtriump hantly
cupbo ards
ĠNorth umbria
Ġentang led
Ġextreme ly
Ġextraord inary
Ġcoax ing
