{"<PAD>":0,"<BOS>":1,"<EOS>":2,"<UNK>":3,"!":4,"\"":5,"#":6,"$":7,"%":8,"&":9,"'":10,"(":11,")":12,"*":13,"+":14,",":15,"-":16,".":17,"/":18,"0":19,"1":20,"2":21,"3":22,"4":23,"5":24,"6":25,"7":26,"8":27,"9":28,":":29,";":30,"<":31,"=":32,">":33,"?":34,"@":35,"A":36,"B":37,"C":38,"D":39,"E":40,"F":41,"G":42,"H":43,"I":44,"J":45,"K":46,"L":47,"M":48,"N":49,"O":50,"P":51,"Q":52,"R":53,"S":54,"T":55,"U":56,"V":57,"W":58,"X":59,"Y":60,"Z":61,"[":62,"\\":63,"]":64,"^":65,"_":66,"`":67,"a":68,"b":69,"c":70,"d":71,"e":72,"f":73,"g":74,"h":75,"i":76,"j":77,"k":78,"l":79,"m":80,"n":81,"o":82,"p":83,"q":84,"r":85,"s":86,"t":87,"u":88,"v":89,"w":90,"x":91,"y":92,"z":93,"{":94,"|":95,"}":96,"~":97,"¡":98,"¢":99,"£":100,"¤":101,"¥":102,"¦":103,"§":104,"¨":105,"©":106,"ª":107,"«":108,"¬":109,"®":110,"¯":111,"°":112,"±":113,"²":114,"³":115,"´":116,"µ":117,"¶":118,"·":119,"¸":120,"¹":121,"º":122,"»":123,"¼":124,"½":125,"¾":126,"¿":127,"À":128,"Á":129,"Â":130,"Ã":131,"Ä":132,"Å":133,"Æ":134,"Ç":135,"È":136,"É":137,"Ê":138,"Ë":139,"Ì":140,"Í":141,"Î":142,"Ï":143,"Ð":144,"Ñ":145,"Ò":146,"Ó":147,"Ô":148,"Õ":149,"Ö":150,"×":151,"Ø":152,"Ù":153,"Ú":154,"Û":155,"Ü":156,"Ý":157,"Þ":158,"ß":159,"à":160,"á":161,"â":162,"ã":163,"ä":164,"å":165,"æ":166,"ç":167,"è":168,"é":169,"ê":170,"ë":171,"ì":172,"í":173,"î":174,"ï":175,"ð":176,"ñ":177,"ò":178,"ó":179,"ô":180,"õ":181,"ö":182,"÷":183,"ø":184,"ù":185,"ú":186,"û":187,"ü":188,"ý":189,"þ":190,"ÿ":191,"Ā":192,"ā":193,"Ă":194,"ă":195,"Ą":196,"ą":197,"Ć":198,"ć":199,"Ĉ":200,"ĉ":201,"Ċ":202,"ċ":203,"Č":204,"č":205,"Ď":206,"ď":207,"Đ":208,"đ":209,"Ē":210,"ē":211,"Ĕ":212,"ĕ":213,"Ė":214,"ė":215,"Ę":216,"ę":217,"Ě":218,"ě":219,"Ĝ":220,"ĝ":221,"Ğ":222,"ğ":223,"Ġ":224,"ġ":225,"Ģ":226,"ģ":227,"Ĥ":228,"ĥ":229,"Ħ":230,"ħ":231,"Ĩ":232,"ĩ":233,"Ī":234,"ī":235,"Ĭ":236,"ĭ":237,"Į":238,"į":239,"İ":240,"ı":241,"Ĳ":242,"ĳ":243,"Ĵ":244,"ĵ":245,"Ķ":246,"ķ":247,"ĸ":248,"Ĺ":249,"ĺ":250,"Ļ":251,"ļ":252,"Ľ":253,"ľ":254,"Ŀ":255,"ŀ":256,"Ł":257,"ł":258,"Ń":259,"Ġt":260,"he":261,"čĊ":262,"âĢ":263,"Ġa":264,"Ġs":265,"in":266,"Ġthe":267,"ou":268,"Ġw":269,"it":270,"nd":271,"er":272,"Ġo":273,"âĢľ":274,"âĢĿ":275,"ha":276,"ing":277,"re":278,"ed":279,"Ġb":280,"Ġto":281,"Ġc":282,"âĢĻ":283,"Ġand":284,"id":285,"en":286,"ll":287,"Ġm":288,"ce":289,"Ġl":290,"Ġd":291,"on":292,"Ġf":293,"Ġsa":294,"as":295,"Ġhe":296,"is":297,"Ġit":298,"Ġof":299,"ow":300,"ĠâĢľ":301,"ar":302,"le":303,"or":304,"li":305,"Ġshe":306,"Ġin":307,"hat":308,"at":309,"Ġg":310,"Ġn":311,"Ġsaid":312,"se":313,"you":314,"Ġbe":315,"an":316,",âĢĿ":317,"Ġp":318,"Ali":319,"Alice":320,"Ġha":321,"Ġyou":322,"ly":323,"ot":324,"Ġth":325,"ĠĠ":326,"ĠI":327,"me":328,"ver":329,"st":330,"Ġwas":331,"Ġon":332,"ld":333,"ĠAlice":334,"ut":335,"Ġh":336,"Ġher":337,"gh":338,"!âĢĿ":339,"Ġe":340,"Ġas":341,"out":342,"es":343,"oo":344,"âĢĶ":345,"ch":346,"ur":347,"Ġthat":348,"Ġso":349,"ent":350,"Ġu":351,"ve":352,"et":353,"ght":354,"ould":355,"Ġr":356,"ith":357,"tle":358,"ad":359,"ke":360,"Ġat":361,"ter":362,"ay":363,"Ġwith":364,".âĢĿ":365,"The":366,"Ġre":367,"the":368,"ir":369,"ck":370,"Ġhad":371,"very":372,"Ġ_":373,"ee":374,"Ġan":375,"Ġnot":376,"Ġall":377,"Ġwh":378,"?âĢĿ":379,"ĠM":380,"ri":381,"ook":382,"lf":383,"and":384,"Ġk":385,"Ġfor":386,"ain":387,"ea":388,"if":389,"to":390,"th":391,"im":392,"ill":393,"ĠH":394,"ittle":395,"qu":396,"Ġdo":397,"own":398,"ry":399,"ab":400,"Ġup":401,"al":402,"self":403,"Ġvery":404,"ĠD":405,"her":406,"Ġthey":407,"ell":408,"Ġne":409,"ge":410,"Ġout":411,"Ġkn":412,"ro":413,"pp":414,"Ġlittle":415,"Ġsu":416,"ust":417,"ion":418,"Ġli":419,"Ġsh":420,"Ġthis":421,"Ġbut":422,"Ġj":423,"ouse":424,"ite":425,"all":426,"Ġsee":427,"Ġme":428,"ĠĠĠ":429,"ound":430,"ere":431,"een":432,"ore":433,"Ġis":434,"ought":435,"ss":436,"our":437,"Ġlook":438,"Ġdown":439,"Ġhis":440,"Ġqu":441,"ink":442,"gain":443,"ard":444,"Ġab":445,"Ġbeg":446,"ight":447,"ĠT":448,"Ġwhat":449,"Ġone":450,"Ġst":451,"Ġwhe":452,"Ġknow":453,"Ġlike":454,"Ġagain":455,"Ġwere":456,"Ġgo":457,"ear":458,"ime":459,"Ġabout":460,"ock":461,"Ġthem":462,"Qu":463,"ice":464,"Ġwent":465,"Wh":466,"Ġcould":467,"Ġno":468,"ome":469,"Ġwould":470,"Ġor":471,"Ġthought":472,"Queen":473,"ame":474,"ĠC":475,"ong":476,"ct":477,"Ġv":478,"Ġoff":479,"Ġsome":480,"che":481,"ind":482,"Ġherself":483,"ĠS":484,"ĠQueen":485,"Ġdid":486,"atter":487,"Ġhave":488,"Ġthing":489,"ĠK":490,"om":491,"un":492,"Ġif":493,"han":494,"And":495,"us":496,"ers":497,"ast":498,"Ġinto":499,"ting":500,"Ġthen":501,"ne":502,"Ġtime":503,"Ġsay":504,"Ġgr":505,"Ġwhen":506,"one":507,"Ġthere":508,"reat":509,"ther":510,"thing":511,"Ġget":512,"urtle":513,"il":514,"ous":515,"nder":516,"Ġwho":517,"ĠKing":518,"ul":519,"ort":520,"ant":521,"Ġyour":522,"ried":523,"are":524,"est":525,"king":526,"Ġmy":527,"ake":528,"ked":529,"ph":530,"Ġex":531,"am":532,"uch":533,"Ġcan":534,"ĠMock":535,"Gry":536,"You":537,"mb":538,"Ġwor":539,"Ġwhi":540,"phon":541,"Gryphon":542,"ling":543,"Ġ*":544,"Ġsp":545,"Ġhead":546,"ĠHatter":547,"oice":548,"Ġtw":549,"Ġby":550,"Ġits":551,"ish":552,"ĠĠĠĠĠ":553,"Ġany":554,"Ġquite":555,"ĠTurtle":556,"ĠCat":557,"It":558,"bit":559,"ure":560,"ĠGryphon":561,"Ġaf":562,"Ġway":563,"Ġmuch":564,"Ġthink":565,"irst":566,"abbit":567,"ning":568,"ose":569,"Ġfe":570,"Ġrep":571,"Ġbegan":572,"Ġvoice":573,"ack":574,"ig":575,"ra":576,"Ġch":577,"Ġmore":578,"Ġdon":579,"âĢĶâĢĿ":580,"dd":581,"way":582,"âĢĺ":583,"ough":584,"Ġtoo":585,"ious":586,"Ġ(":587,"ĠR":588,"Ġcon":589,"Ġhim":590,"she":591,"Ġtheir":592,"ree":593,"Ġhow":594,"ess":595,"ood":596,"led":597,"od":598,"ĠThe":599,"Ġother":600,"Ġgot":601,"Ġpo":602,"What":603,"that":604,"Ġal":605,"Ġmad":606,"Ġmust":607,"Ġfirst":608,"ist":609,"orm":610,"fore":611,"hing":612,"uche":613,"Ġare":614,"Ġnow":615,"Ġnever":616,"Ġjust":617,"Ġlooked":618,"ĠRabbit":619,"uchess":620,"Ġsha":621,"Ġonly":622,"Ġround":623,"au":624,"ec":625,"ven":626,"erp":627,"Ġover":628,"Ġcour":629,"ĠDorm":630,"ĠDormouse":631,"but":632,"pt":633,"ĠDuchess":634,"rom":635,"Ġsuch":636,"ĠF":637,"ĠAnd":638,"Ġlar":639,"arch":640,"ate":641,"But":642,"ace":643,"ever":644,"ic":645,"Ġback":646,"Ġcame":647,"Ġbeen":648,"Ġseem":649,"Ġwhich":650,"oot":651,"Ġtur":652,"art":653,"Ġgreat":654,"Ġshould":655,"Oh":656,"be":657,"ep":658,"ire":659,"ĠWh":660,"Ġar":661,"Ġwell":662,"Ġmin":663,"Ġlong":664,"Ġhere":665,"Ġpl":666,"Ġey":667,"Ġus":668,"Ġafter":669,"ag":670,"ave":671,"ily":672,"row":673,"Ġy":674,"Ġtone":675,"ence":676,"leas":677,"ather":678,"per":679,"xt":680,"Ġcur":681,"Ġlast":682,"ance":683,"Ġput":684,"able":685,"of":686,"ull":687,"ĠâĢĺ":688,"Ġrem":689,"ĠMarch":690,"ds":691,"op":692,"hed":693,"ass":694,"Ġhand":695,"other":696,"ĠHare":697,"oment":698,"onder":699,"ves":700,"Ġman":701,"Ġle":702,"Ġheard":703,"Ġgl":704,"Ġbefore":705,"ury":706,"Ġright":707,"imp":708,"Ġlarge":709,"end":710,"up":711,"ĠA":712,"ĠL":713,"Ġke":714,"ide":715,"Ġfrom":716,"lied":717,"ĠĠĠĠ":718,"Ġonce":719,"Ġdoor":720,"Ġtwo":721,"Ġmade":722,"ect":723,"Ġcat":724,"ened":725,"Ġdear":726,"Ġfound":727,"ation":728,"illar":729,"erpillar":730,"Ġminut":731,"get":732,"lt":733,"ned":734,"ving":735,"Ġtal":736,"Ġam":737,"Ġwa":738,"Ġbot":739,"Ġmight":740,"Ġmoment":741,"Ġday":742,"ĠMouse":743,"Ġlooking":744,"mber":745,"Ġreplied":746,"ody":747,"Ġeyes":748,"ild":749,"old":750,"ru":751,"ĠP":752,"Ġtell":753,"Ġchan":754,"Ġmake":755,"ons":756,"Ġhur":757,"Ġun":758,"Ġnothing":759,"Ġnear":760,"Ġnext":761,"Ġbegin":762,"ĠCaterpillar":763,"his":764,"igh":765,"Ġen":766,"Ġtry":767,"Ġthan":768,"Ġadd":769,"Ġwon":770,"Ġcome":771,"Ġfind":772,"Ġthree":773,"Ġunder":774,"Ġupon":775,"Ġthings":776,"Ġseemed":777,"Ġremar":778,"That":779,"was":780,"ĠB":781,"Ġaway":782,"iting":783,"Ġcl":784,"ise":785,"les":786,"Ġpleas":787,"Ġevery":788,"Ġjury":789,"ally":790,"Ġmean":791,"arden":792,"Ġgoing":793,"Ġpoor":794,"Ġcourse":795,"How":796,"No":797,"Well":798,"ak":799,"body":800,"eat":801,"ive":802,"Ġtre":803,"Ġwonder":804,"ory":805,"Ġgood":806,"Ġgarden":807,"oom":808,"Ġsoon":809,"right":810,"ĠShe":811,"Ġgrow":812,"Ġtook":813,"Ġadded":814,"Of":815,"aw":816,"age":817,"ie":818,"ng":819,"not":820,"pl":821,"ps":822,"Ġtea":823,"Ġsm":824,"ine":825,"Ġwr":826,"Ġwill":827,"Ġfl":828,"Ġsame":829,"ool":830,"Ġrather":831,"Ġwithout":832,"There":833,"Ġread":834,"Ġshall":835,"de":836,"em":837,"um":838,"Ġsort":839,"Ġwish":840,"Ġold":841,"read":842,"Ġpe":843,"Ġanother":844,"Ġgetting":845,"estion":846,"ures":847,"ause":848,"ĠWhite":849,"aid":850,"iz":851,"ost":852,"oke":853,"tain":854,"ved":855,"Ġsl":856,"Ġwe":857,"ity":858,"Ġop":859,"Ġcried":860,"âĢĻâĢĿ":861,"Ġhar":862,"Ġhalf":863,"Ġhapp":864,"member":865,"Ġuse":866,"Ġremember":867,"Ġdoes":868,"Why":869,"Ġwords":870,"Ġfelt":871,"Ġarm":872,"ully":873,"ah":874,"dly":875,"ful":876,"ick":877,"Ġtill":878,"oup":879,"red":880,"Ġfan":881,"Ġhear":882,"leep":883,"Ġpu":884,"Ġhouse":885,"Ġeat":886,"Ġever":887,"Ġfeet":888,"Ġchild":889,"iously":890,"ecut":891,"Ġyet":892,"Ġcurious":893,"ble":894,"el":895,"ft":896,"fully":897,"ho":898,"sh":899,"ĠE":900,"ĠW":901,"Ġtried":902,"Ġset":903,"Ġwal":904,"ered":905,"Ġbr":906,"Ġcall":907,"Ġfin":908,"Ġface":909,"Ġbec":910,"Ġbet":911,"Ġbeing":912,"Ġpro":913,"Ġend":914,"Ġeven":915,"ently":916,"eep":917,"eak":918,"ĠHow":919,"Ġsure":920,"Ġrepeat":921,"dden":922,"Come":923,"If":924,"So":925,"She":926,"act":927,"ail":928,"for":929,"ged":930,"now":931,"oll":932,"ten":933,"Ġtable":934,"here":935,"Ġsn":936,"Ġside":937,"ertain":938,"haps":939,"ream":940,"Ġbit":941,"Ġcom":942,"Ġfee":943,"ished":944,"Ġgu":945,"Ġpart":946,"Ġear":947,"Ġasked":948,"Then":949,"iff":950,"iful":951,"Ġquestion":952,"ush":953,"Ġwhile":954,"Ġspoke":955,"Ġminute":956,".)":957,"aut":958,"air":959,"cl":960,"ile":961,"man":962,"so":963,"Ġwat":964,"Ġlo":965,"Ġlow":966,"Ġfar":967,"Ġsat":968,"Ġinter":969,"Ġhast":970,"Ġran":971,"They":972,"Ġsupp":973,"Ġsomething":974,"Ġenough":975,"akes":976,":âĢĶ":977,"ac":978,"ap":979,"bst":980,"dv":981,"ew":982,"gs":983,"sw":984,"time":985,"what":986,"hen":987,"Ġair":988,"Ġsit":989,"Ġsil":990,"erhaps":991,"ress":992,"Ġcro":993,"Ġcertain":994,"idea":995,"Ġless":996,"Ġlist":997,"Ġdiff":998,"Ġfoot":999,"Ġhigh":1000,"Ġel":1001,"urp":1002,"Ġang":1003,"eal":1004,"ife":1005,"aby":1006,"pped":1007,"Ġsudden":1008,"Ġexecut":1009,"Ġanything":1010,"beg":1011,"Ġplay":1012,"Ġleft":1013,"Ġhastily":1014,"CH":1015,"_,âĢĿ":1016,"ach":1017,"bb":1018,"dge":1019,"ness":1020,"oin":1021,"ond":1022,"oes":1023,"rough":1024,"with":1025,"xiously":1026,"zz":1027,"Ġought":1028,"Ġtri":1029,"Ġtake":1030,"Ġsw":1031,"Ġseen":1032,"inah":1033,"oud":1034,"ited":1035,"ren":1036,"ret":1037,"Ġmor":1038,"Ġdone":1039,"Ġinde":1040,"Ġgave":1041,"your":1042,"ĠIt":1043,"outh":1044,"Ġknew":1045,"Ġdidn":1046,"raw":1047,"Ġturned":1048,"gether":1049,"Ġtalk":1050,"Ġboth":1051,"Ġsmall":1052,"ump":1053,"Ġdoesn":1054,"Ġbetter":1055,"ollow":1056,"Ġindeed":1057,"Not":1058,"This":1059,"app":1060,"aking":1061,"cour":1062,"fus":1063,"hind":1064,"ich":1065,"little":1066,"sation":1067,"said":1068,"Ġidea":1069,"head":1070,"Ġsiz":1071,"Ġwant":1072,"Ġbus":1073,"Ġcook":1074,"idly":1075,"Ġmay":1076,"Ġmouse":1077,"Ġmouth":1078,"Ġlea":1079,"Ġdance":1080,"Ġfollow":1081,"Ġsaw":1082,"Ġitself":1083,"lie":1084,"Ġgame":1085,"Ġgone":1086,"Ġru":1087,"Ġroom":1088,"they":1089,"eez":1090,"ĠMa":1091,"Who":1092,"Ġwhole":1093,"ult":1094,"ways":1095,"Ġcont":1096,"odo":1097,"Ġcourt":1098,"ople":1099,"Ġtalking":1100,"Ġtrying":1101,"Ġremark":1102,"ĠBill":1103,"Ġclose":1104,"plain":1105,"Ġhappen":1106,"AP":1107,"As":1108,"ER":1109,"He":1110,"Now":1111,"TER":1112,"Yes":1113,"eer":1114,"io":1115,"ige":1116,"iers":1117,"jest":1118,"no":1119,"wh":1120,"ying":1121,"Ġimp":1122,"Ġac":1123,"Ġadv":1124,"Ġsc":1125,"Ġsound":1126,"ither":1127,"âĢľ_":1128,"Ġbaby":1129,"Ġcreat":1130,"idd":1131,"Ġlet":1132,"Ġlear":1133,"Ġdire":1134,"Ġname":1135,"Ġbeaut":1136,"Ġpass":1137,"Ġperhaps":1138,"Ġask":1139,"Ġwhis":1140,"think":1141,"quet":1142,"about":1143,"ĠDodo":1144,"herself":1145,"Ġshri":1146,"Ġjoin":1147,"ards":1148,"Ġstill":1149,"Ġwhere":1150,"ears":1151,"Ġwouldn":1152,"ches":1153,"ĠSo":1154,"ortant":1155,"Ġspeak":1156,"Ġafra":1157,"ĠThere":1158,"erpent":1159,"Ġused":1160,"Ġhands":1161,"Ġkept":1162,"Ġcats":1163,"Ġamong":1164,"Ġchange":1165,"Ġhurry":1166,"Ġbeginning":1167,"Ġplease":1168,"Ġcalled":1169,"Ġfinished":1170,"Ġcertainly":1171,"Ġelse":1172,"urpr":1173,"Ġsuddenly":1174,"CHAP":1175,"Ġsize":1176,"igeon":1177,"jesty":1178,"Ġdirect":1179,"Ġafraid":1180,"CHAPTER":1181,"Here":1182,"_,":1183,"_âĢĿ":1184,"day":1185,"fort":1186,"ict":1187,"lp":1188,"ox":1189,"oves":1190,"rink":1191,"ted":1192,"ued":1193,"uck":1194,"wo":1195,"would":1196,"Ġtr":1197,"Ġtim":1198,"Ġapp":1199,"Ġsleep":1200,"Ġthese":1201,"Ġwit":1202,"ense":1203,"Ġlife":1204,"Ġde":1205,"Ġdou":1206,"Ġdeep":1207,"Ġdeal":1208,"Ġfall":1209,"ised":1210,"ister":1211,"ark":1212,"Ġinst":1213,"ates":1214,"Ġbehind":1215,"versation":1216,"Ġwasn":1217,"ching":1218,"Ġreas":1219,"Ġrest":1220,"eared":1221,"this":1222,"ĠDinah":1223,"ched":1224,"ĠSoup":1225,"Ġsaying":1226,"Ġshar":1227,"ootman":1228,"Ġturn":1229,"ended":1230,"Ġminutes":1231,"Ġhurried":1232,"Off":1233,"Ġpeople":1234,"Ġhardly":1235,"Ġpuzz":1236,"ĠHowever":1237,"Ġsneez":1238,"Ġsuppose":1239,"Ġlisten":1240,"ĠMajesty":1241,"On":1242,"We":1243,"ex":1244,"even":1245,"fter":1246,"look":1247,"oor":1248,"sp":1249,"some":1250,"umb":1251,"wn":1252,"ĠBut":1253,"Ġtail":1254,"Ġtears":1255,"Ġsea":1256,"Ġsto":1257,"Ġsig":1258,"Ġsurpr":1259,"Ġsister":1260,"Ġown":1261,"ener":1262,"Ġmo":1263,"Ġmind":1264,"Ġmatter":1265,"Ġfell":1266,"Ġhedge":1267,"ĠâĢľâĢĶ":1268,"let":1269,"Ġgener":1270,"Ġbelie":1271,"Ġpie":1272,"Ġhaving":1273,"Ġthrough":1274,"Ġeag":1275,"Ġreally":1276,"them":1277,"irds":1278,"Ġansw":1279,"Ġanxiously":1280,"rily":1281,"ĠHe":1282,"Ġshout":1283,"Ġqueer":1284,"Ġgrin":1285,"antly":1286,"Ġword":1287,"Ġtwink":1288,"pted":1289,"Ġturning":1290,"Ġmany":1291,"Ġglad":1292,"Ġkeep":1293,"Ġwaited":1294,"ĠPigeon":1295,"Ġopened":1296,"Ġwalked":1297,"Ġbecause":1298,"ressed":1299,"Ġexecution":1300,"Ġtrial":1301,"Ġwitness":1302,"Ġdoub":1303,"Ġreason":1304,"Ġeager":1305,",)":1306,"Do":1307,"ale":1308,"again":1309,"con":1310,"com":1311,"ff":1312,"got":1313,"ies":1314,"iam":1315,"ky":1316,"know":1317,"low":1318,"ner":1319,"nave":1320,"po":1321,"rown":1322,"room":1323,"sid":1324,"sent":1325,"Ġsing":1326,"Ġsight":1327,"inued":1328,"ering":1329,"erent":1330,"Ġopp":1331,"âĢľâĢĶ":1332,"had":1333,"hand":1334,"Ġbook":1335,"Ġbright":1336,"Ġmost":1337,"Ġmakes":1338,"Ġdist":1339,"Ġdec":1340,"Ġfur":1341,"ati":1342,"Ġgive":1343,"Ġbest":1344,"Ġpig":1345,"Ġpool":1346,"Ġhall":1347,"Ġhold":1348,"oop":1349,"Ġsold":1350,"Ġrun":1351,"Ġnotic":1352,"Ġwhy":1353,"ppy":1354,"pper":1355,"Ġwhether":1356,"Ġoffended":1357,"Ġwork":1358,"Ġheads":1359,"Ġthinking":1360,"Ġfew":1361,"Ġalways":1362,"aught":1363,"Ġplace":1364,"rowd":1365,"Ġgloves":1366,"important":1367,"ĠĠĠĠĠĠĠĠ":1368,"Ġbottle":1369,"rupted":1370,"Ġremarked":1371,"aws":1372,"Ġopen":1373,"Ġchildren":1374,"Ġrepeated":1375,"Ġsitting":1376,"Ġsilence":1377,"Ġlessons":1378,"Ġcontinued":1379,"Ġlearn":1380,"Ġsharp":1381,"Ġbelieve":1382,"Ġshouted":1383,"),":1384,"Would":1385,"When":1386,"ced":1387,"could":1388,"cup":1389,"go":1390,"ger":1391,"ging":1392,"iet":1393,"ls":1394,"med":1395,"ring":1396,"tone":1397,"vid":1398,"ĠN":1399,"Ġver":1400,"Ġim":1401,"ĠOh":1402,"Ġsimp":1403,"Ġserpent":1404,"oun":1405,"Ġwood":1406,"rew":1407,"Ġbat":1408,"Ġbro":1409,"Ġtogether":1410,"Ġche":1411,"Ġcar":1412,"Ġcare":1413,"Ġcrowd":1414,"Ġlying":1415,"Ġdis":1416,"Ġdream":1417,"Ġfright":1418,"Ġfact":1419,"Ġhelp":1420,"iss":1421,"owly":1422,"less":1423,"light":1424,"Ġnice":1425,"any":1426,"Ġpers":1427,"Ġhas":1428,"Ġthose":1429,"stand":1430,"Ġhop":1431,"Ġasleep":1432,"âĢĶâĢĺ":1433,"Ġra":1434,"Ġrose":1435,"Ġrate":1436,"Ġatt":1437,"then":1438,"Ġwhite":1439,"Ġwhiting":1440,"illiam":1441,"Ġsub":1442,"ions":1443,"Ġlive":1444,"Ġshook":1445,"Ġjump":1446,"Ġagainst":1447,"Ġgold":1448,"Ġcouldn":1449,"Ġnose":1450,"Ġord":1451,"indow":1452,"ĠKnave":1453,"unity":1454,"ney":1455,"ortunity":1456,"Ġyourself":1457,"Ġexplain":1458,"Ġconfus":1459,"Ġconversation":1460,"ĠFor":1461,"ĠFootman":1462,"ately":1463,"arts":1464,"ired":1465,"Ġleast":1466,"Ġwaiting":1467,"Ġnearly":1468,"Ġmeaning":1469,"Ġtremb":1470,"Ġgrowing":1471,"Ġready":1472,"Ġslates":1473,"Ġslowly":1474,"Ġhard":1475,"Ġfanc":1476,"actly":1477,"Ġfeeling":1478,"Ġparty":1479,"ushroom":1480,"Ġlobst":1481,"Ġinterrupted":1482,"acle":1483,"Ġcroquet":1484,"Ġdifferent":1485,"Ġangrily":1486,"began":1487,"Ġmoral":1488,"Ġfollowed":1489,"Ġcreatures":1490,"iddle":1491,"Ġbeautiful":1492,"Ġwhisper":1493,"Ġtimidly":1494,"Ġpuzzled":1495,"Ġhedgeho":1496,"Ġdoubt":1497,"Ġopportunity":1498,"Ġsoldiers":1499,"Ġnoticed":1500,".âĢĻâĢĿ":1501,"?_âĢĿ":1502,"In":1503,"Just":1504,"Turtle":1505,"_.âĢĿ":1506,"av":1507,"can":1508,"ek":1509,"gr":1510,"grow":1511,"how":1512,"ix":1513,"ied":1514,"ject":1515,"ken":1516,"mn":1517,"most":1518,"oy":1519,"say":1520,"ts":1521,"tur":1522,"ue":1523,"umber":1524,"ĠO":1525,"Ġour":1526,"Ġtru":1527,"Ġtired":1528,"hesh":1529,"Ġsong":1530,"iness":1531,"its":1532,"ery":1533,"have":1534,"Ġbreat":1535,"Ġtop":1536,"Ġcle":1537,"ided":1538,"Ġmar":1539,"Ġmiddle":1540,"cess":1541,"Ġden":1542,"Ġdry":1543,"Ġdread":1544,"Ġdraw":1545,"only":1546,"aster":1547,"ary":1548,"lemn":1549,"anch":1550,"Ġhair":1551,"ute":1552,"Ġeach":1553,"Ġeither":1554,"âĢĶâĢľ":1555,"chool":1556,"Ġsolemn":1557,"enture":1558,"etch":1559,"their":1560,"Ġhadn":1561,"verything":1562,"Ġkind":1563,"Ġforgot":1564,"eaking":1565,"imney":1566,"ĠHear":1567,"alking":1568,"Ġneck":1569,"Ġshut":1570,"Ġshoes":1571,"Ġisn":1572,"ssi":1573,"ardon":1574,"Ġstood":1575,"Ġstory":1576,"Ġgoes":1577,"ocket":1578,"Ġventure":1579,"Ġgrown":1580,"ular":1581,"Ġexcl":1582,"aming":1583,"Ġworld":1584,"Ġchin":1585,"Ġconsid":1586,"Ġlarger":1587,"icult":1588,"before":1589,"ĠWhy":1590,"Ġarg":1591,"Ġeye":1592,"Ġusu":1593,"lease":1594,"off":1595,"Ġmanage":1596,"Ġglass":1597,"ending":1598,"upid":1599,"Ġkey":1600,"onsense":1601,"ĠBea":1602,"Ġeverything":1603,"Ġtrees":1604,"Ġgardeners":1605,"ngl":1606,"emper":1607,"Ġpuppy":1608,"ĠEngl":1609,"ĠWilliam":1610,"Ġcoming":1611,"Ġfeel":1612,"Ġdifficult":1613,"court":1614,"Ġbusiness":1615,"Ġleave":1616,"iol":1617,"Ġappeared":1618,"Ġdelight":1619,"Ġgenerally":1620,"Ġpiece":1621,"Ġanswer":1622,"Ġeagerly":1623,"Ġdistance":1624,"atiently":1625,"vidence":1626,"Ġgolden":1627,"heshire":1628,"Don":1629,"Let":1630,"Will":1631,"_âĢĶ":1632,"aim":1633,"bs":1634,"bly":1635,"box":1636,"down":1637,"fe":1638,"from":1639,"gl":1640,"lite":1641,"lves":1642,"lanch":1643,"mp":1644,"men":1645,"ny":1646,"oly":1647,"obst":1648,"pig":1649,"ron":1650,"ran":1651,"sit":1652,"side":1653,"tory":1654,"will":1655,"ween":1656,"wards":1657,"Ġed":1658,"Ġhat":1659,"ĠYou":1660,"ĠNo":1661,"Ġsent":1662,"Ġsir":1663,"Ġsec":1664,"Ġsever":1665,"Ġsigh":1666,"Ġschool":1667,"inea":1668,"ouble":1669,"Ġwindow":1670,"itten":1671,"Ġoh":1672,"resent":1673,"Ġbl":1674,"Ġtold":1675,"Ġcr":1676,"Ġcut":1677,"ides":1678,"Ġmaking":1679,"Ġmushroom":1680,"Ġlate":1681,"Ġloud":1682,"Ġdro":1683,"Ġfour":1684,"ash":1685,"ison":1686,"orrow":1687,"Ġinches":1688,"Ġgir":1689,"Ġnonsense":1690,"set":1691,"Ġbeat":1692,"Ġpardon":1693,"Ġhaven":1694,"Ġyouth":1695,"Ġthough":1696,"utter":1697,"Ġhour":1698,"Ġhun":1699,"Ġeg":1700,"Ġevidence":1701,"oof":1702,"urn":1703,"entures":1704,"eek":1705,"riz":1706,"together":1707,"imal":1708,"rying":1709,"abel":1710,"Ġknee":1711,"ross":1712,"Ġshow":1713,"Ġbutter":1714,"Ġmelanch":1715,"Ġquiet":1716,"Ġbegun":1717,"Which":1718,"ĠCheshire":1719,"Ġtimes":1720,"Ġgrave":1721,"things":1722,"ign":1723,"Ġchimney":1724,"Ġhimself":1725,"Ġhowever":1726,"Ġothers":1727,"Ġpolite":1728,"Ġalmost":1729,"butter":1730,"ĠFive":1731,"Ġmine":1732,"aged":1733,"ĠâĢĺ_":1734,"ĠAn":1735,"ĠLory":1736,"olded":1737,"Ġpleased":1738,"Ġwritten":1739,"Ġflaming":1740,"empt":1741,"Ġpepper":1742,"izard":1743,"Ġhappened":1744,"Ġarms":1745,"Ġfinish":1746,"Ġguess":1747,"Ġguinea":1748,"Ġwatch":1749,"Ġlove":1750,"Ġinterest":1751,"Ġsilent":1752,"Ġcross":1753,"Ġswim":1754,"Ġacc":1755,"Ġscream":1756,"Ġsneezing":1757,"Ġsurprised":1758,"Ġexecutioner":1759,"Ġdecided":1760,"Ġrunning":1761,"Ġverse":1762,"Ġbroken":1763,"Ġfrightened":1764,"Ġsubject":1765,"Ġlobsters":1766,"Ġhedgehog":1767,"Ġmarked":1768,"Ġdreadfully":1769,"ĠHearts":1770,"Ġexclaim":1771,"ĠEnglish":1772,"Ġmelancholy":1773,"Ġpolitely":1774,"Ġexclaimed":1775,"!âĢĻ":1776,"At":1777,"Are":1778,"All":1779,"For":1780,"II":1781,"One":1782,"St":1783,"Very":1784,"aper":1785,"co":1786,"do":1787,"du":1788,"dign":1789,"ely":1790,"ead":1791,"everything":1792,"fish":1793,"fect":1794,"gar":1795,"ges":1796,"hot":1797,"ibb":1798,"just":1799,"long":1800,"ment":1801,"oved":1802,"pe":1803,"sc":1804,"su":1805,"sha":1806,"sing":1807,"sity":1808,"te":1809,"tell":1810,"til":1811,"two":1812,"vous":1813,"we":1814,"went":1815,"well":1816,"wonder":1817,"wise":1818,"where":1819,"when":1820,"ĠV":1821,"Ġent":1822,"Ġte":1823,"Ġten":1824,"Ġtree":1825,"Ġtaking":1826,"Ġtarts":1827,"Ġtemper":1828,"Ġsqu":1829,"Ġshan":1830,"Ġsky":1831,"iny":1832,"ervous":1833,"inger":1834,"eds":1835,"Ġbow":1836,"Ġbread":1837,"Ġbox":1838,"Ġbirds":1839,"Ġcas":1840,"Ġmutter":1841,"ceed":1842,"cept":1843,"Ġdare":1844,"Ġdrink":1845,"Ġdrew":1846,"Ġfun":1847,"Ġfull":1848,"asily":1849,"Ġheight":1850,"Ġoften":1851,"ĠâĢľ_":1852,"aring":1853,"like":1854,"Ġinv":1855,"Ġindign":1856,"atch":1857,"Ġgre":1858,"Ġnervous":1859,"Ġpr":1860,"Ġpack":1861,"Ġpair":1862,"Ġpict":1863,"Ġyoung":1864,"Ġthrow":1865,"ĠIn":1866,"utiful":1867,"Ġhome":1868,"Ġasking":1869,"uror":1870,"Ġrat":1871,"Ġrabbit":1872,"Ġroof":1873,"Ġreach":1874,"Ġanimal":1875,"Ġnotice":1876,"riend":1877,"ookah":1878,"Ġkid":1879,"Ġforget":1880,"thought":1881,"Ġnew":1882,"Ġsul":1883,"Ġliked":1884,"Ġshrink":1885,"Ġju":1886,"Ġjuror":1887,"Ġmeant":1888,"Ġhistory":1889,"ĠThat":1890,"Ġstay":1891,"Ġstand":1892,"Ġstick":1893,"Ġvan":1894,"Ġviol":1895,"Ġsomebody":1896,"Ġgrun":1897,"ilence":1898,"Ġmyself":1899,"Ġexp":1900,"Ġext":1901,"Ġexactly":1902,"Ġtwice":1903,"Ġreply":1904,"ĠThey":1905,"Ġalong":1906,"Ġaltogether":1907,"ecause":1908,"oots":1909,"Ġplan":1910,"Ġcurio":1911,"ĠAs":1912,"ĠLet":1913,"ĠLizard":1914,"Ġwaving":1915,"rumb":1916,"Ġchanged":1917,"Ġunderstand":1918,"Ġeverybody":1919,"Ġmeans":1920,"Ġtreacle":1921,"Ġwondering":1922,"Ġwrite":1923,"Ġwriting":1924,"ument":1925,"Ġremembered":1926,"Ġwalk":1927,"Ġbecome":1928,"Ġprocess":1929,"Ġears":1930,"airs":1931,"Ġwater":1932,"times":1933,"Ġangry":1934,"bbing":1935,"Ġswam":1936,"Ġmorning":1937,"rawling":1938,"Ġhappens":1939,"Ġimpatiently":1940,"Ġacross":1941,"Ġsounded":1942,"Ġshrill":1943,"Ġshriek":1944,"Ġdirection":1945,"fortable":1946,"Ġtrouble":1947,"Ġsleepy":1948,"Ġinstantly":1949,"looking":1950,"Ġstop":1951,"Ġsighed":1952,"Ġtwinkle":1953,"Ġsimple":1954,"Ġperson":1955,"Ġjumped":1956,"Ġtrembling":1957,"Ġfancy":1958,"Ġwhispered":1959,"Ġforgotten":1960,"Ġargument":1961,"Ġusual":1962,"obster":1963,"range":1964,"Ġsecond":1965,"Ġeggs":1966,"rizes":1967,"Ġquietly":1968,"Ġflamingo":1969,"Ġinteresting":1970,"Ġcase":1971,"Ġcuriosity":1972,"!_âĢĿ":1973,").":1974,"?âĢĶ":1975,"Ah":1976,"An":1977,"Be":1978,"By":1979,"Call":1980,"Ex":1981,"First":1982,"Hold":1983,"My":1984,"Please":1985,"Sure":1986,"_.":1987,"az":1988,"after":1989,"bow":1990,"book":1991,"birds":1992,"because":1993,"cc":1994,"ci":1995,"come":1996,"chan":1997,"cop":1998,"did":1999,"don":2000,"dict":2001,"door":2002,"ext":2003,"gli":2004,"hor":2005,"ip":2006,"las":2007,"lar":2008,"ms":2009,"my":2010,"min":2011,"must":2012,"moment":2013,"near":2014,"oh":2015,"os":2016,"oking":2017,"ped":2018,"pie":2019,"pocket":2020,"ray":2021,"run":2022,"take":2023,"tree":2024,"uc":2025,"under":2026,"ude":2027,"uff":2028,"vil":2029,"wr":2030,"whe":2031,"wor":2032,"ĠG":2033,"ĠâĢĻ":2034,"ĠQu":2035,"ĠWhat":2036,"Ġter":2037,"Ġtast":2038,"Ġtak":2039,"Ġtaught":2040,"Ġtiny":2041,"Ġage":2042,"Ġsin":2043,"Ġsoup":2044,"Ġsides":2045,"Ġsorrow":2046,"int":2047,"Ġwow":2048,"Ġwand":2049,"Ġwild":2050,"Ġweek":2051,"ital":2052,"itche":2053,"itude":2054,"Ġob":2055,"rem":2056,"Ġbar":2057,"Ġban":2058,"Ġtoss":2059,"Ġtong":2060,"Ġcor":2061,"Ġcap":2062,"ider":2063,"lle":2064,"Ġmice":2065,"Ġmus":2066,"Ġlad":2067,"Ġlay":2068,"Ġlock":2069,"Ġdes":2070,"Ġdish":2071,"Ġdark":2072,"onour":2073,"Ġfly":2074,"Ġfear":2075,"Ġfast":2076,"Ġfig":2077,"Ġfire":2078,"Ġfrown":2079,"Ġfetch":2080,"Ġfinger":2081,"Ġfriend":2082,"Ġsadly":2083,"arre":2084,"arse":2085,"lead":2086,"orpo":2087,"atur":2088,"Ġnur":2089,"Ġnight":2090,"Ġnone":2091,"Ġnine":2092,"Ġnibb":2093,"sea":2094,"selves":2095,"anc":2096,"ang":2097,"answ":2098,"anxiously":2099,"Ġpatter":2100,"Ġpeep":2101,"Ġpret":2102,"Ġpale":2103,"Ġpresent":2104,"Ġporpo":2105,"ote":2106,"Ġho":2107,"Ġhookah":2108,"Ġhonour":2109,"Ġhers":2110,"urd":2111,"Ġsobs":2112,"enth":2113,"enty":2114,"adri":2115,"there":2116,"ĠMabel":2117,"Ġkitche":2118,"aint":2119,"ained":2120,"tom":2121,"though":2122,"through":2123,"imble":2124,"question":2125,"Ġdoing":2126,"ĠDo":2127,"Ġknock":2128,"roll":2129,"pping":2130,"allow":2131,"Ġquick":2132,"ĠThis":2133,"ĠTwo":2134,"Ġstra":2135,"Ġstupid":2136,"Ġstrange":2137,"Ġnobody":2138,"Ġthoughtfully":2139,"ĠCome":2140,"Ġoffic":2141,"Ġsometimes":2142,"ĠSoo":2143,"used":2144,"asts":2145,"never":2146,"Ġsays":2147,"Ġgrass":2148,"Ġworth":2149,"Ġspread":2150,"Ġspeaking":2151,"Ġtwel":2152,"igging":2153,"Ġ(âĢľ":2154,"Ġconcl":2155,"ĠThen":2156,"Ġpoin":2157,"Ġaloud":2158,"ĠFather":2159,"icular":2160,"Ġseems":2161,"ootiful":2162,"Ġshouldn":2163,"Ġshoulder":2164,"Ġarches":2165,"Ġyer":2166,"Ġmanaged":2167,"ĠAt":2168,"ĠLobster":2169,"Ġbottom":2170,"Ġchance":2171,"Ġuncom":2172,"Ġuntil":2173,"Ġnearer":2174,"Ġencour":2175,"lescop":2176,"Ġjurymen":2177,"nothing":2178,"Ġteacup":2179,"Ġsmil":2180,"Ġwrong":2181,"Ġhearing":2182,"hole":2183,"should":2184,"Ġsett":2185,"Ġbring":2186,"Ġfaces":2187,"Ġbetween":2188,"Ġparticular":2189,"Ġquestions":2190,"Ġsuppressed":2191,"ape":2192,"Ġexecuted":2193,"begin":2194,"Ġplayers":2195,"without":2196,"rench":2197,"retched":2198,"Nothing":2199,"Ġbusily":2200,"Ġmouths":2201,"Ġleaves":2202,"Ġrule":2203,"why":2204,"while":2205,"which":2206,"Ġadventures":2207,"Ġcreature":2208,"Ġpassed":2209,"Ġdead":2210,"Ġdeeply":2211,"Ġfallen":2212,"execut":2213,"Ġsurprise":2214,"Ġfellow":2215,"Ġtwinkling":2216,"confus":2217,"Ġsharply":2218,"medi":2219,"Ġimmedi":2220,"Ġbats":2221,"Ġcarried":2222,"Ġcrowded":2223,"anything":2224,"Ġhope":2225,"Ġordered":2226,"ground":2227,"saying":2228,"turned":2229,"Ġtrue":2230,"Ġbreath":2231,"Ġclear":2232,"Ġsolemnly":2233,"ssible":2234,"Ġventured":2235,"ĠBeau":2236,"Ġdifficulty":2237,"pigs":2238,"Ġseverely":2239,"Ġdropped":2240,"Ġgirl":2241,"Ġhours":2242,"ĠAnn":2243,"Ġscreamed":2244,"Ġdecidedly":2245,"fectly":2246,"Ġbowed":2247,"Ġindignantly":2248,"Ġgreen":2249,"Ġshrinking":2250,"Ġjudge":2251,"Ġjurors":2252,"Ġvanished":2253,"Ġgrunted":2254,"Ġexpect":2255,"rumbs":2256,"Ġprocession":2257,"glif":2258,"large":2259,"minute":2260,"Ġtaken":2261,"Ġsince":2262,"Ġtongue":2263,"Ġcorner":2264,"Ġcapital":2265,"Ġfrowning":2266,"atural":2267,"Ġporpoise":2268,"adrille":2269,"Ġkitchen":2270,"Ġstraight":2271,"Ġtwelve":2272,"!âĢĶ":2273,"!âĢĻâĢĿ":2274,".âĢĻ":2275,";âĢĿ":2276,"After":2277,"Bill":2278,"Cons":2279,"Did":2280,"Down":2281,"Duchess":2282,"Dinah":2283,"Every":2284,"Footman":2285,"Give":2286,"Have":2287,"IN":2288,"Is":2289,"Mouse":2290,"Never":2291,"OR":2292,"Perhaps":2293,"Rabbit":2294,"Su":2295,"Soo":2296,"Tis":2297,"Than":2298,"Take":2299,"Turn":2300,"Yet":2301,"aused":2302,"bo":2303,"by":2304,"best":2305,"cat":2306,"call":2307,"came":2308,"cus":2309,"cil":2310,"cceed":2311,"di":2312,"dis":2313,"dear":2314,"does":2315,"ey":2316,"eed":2317,"fl":2318,"fee":2319,"four":2320,"gg":2321,"gry":2322,"great":2323,"gra":2324,"good":2325,"gged":2326,"iles":2327,"ivil":2328,"ks":2329,"kers":2330,"lare":2331,"mer":2332,"ming":2333,"mon":2334,"much":2335,"mine":2336,"ners":2337,"oon":2338,"ove":2339,"oked":2340,"ossible":2341,"pu":2342,"pan":2343,"pro":2344,"pleas":2345,"pass":2346,"rather":2347,"tis":2348,"tea":2349,"talking":2350,"uous":2351,"vage":2352,"wl":2353,"wink":2354,"who":2355,"walking":2356,"xious":2357,"yet":2358,"ĠX":2359,"ĠOff":2360,"ĠOn":2361,"Ġtuck":2362,"Ġtumb":2363,"hes":2364,"help":2365,"Ġag":2366,"Ġali":2367,"Ġsli":2368,"Ġsense":2369,"Ġsix":2370,"inter":2371,"oudly":2372,"itted":2373,"erday":2374,"ings":2375,"rep":2376,"edn":2377,"Ġblow":2378,"Ġboy":2379,"Ġburn":2380,"Ġboots":2381,"Ġtoes":2382,"Ġco":2383,"Ġcha":2384,"Ġcand":2385,"Ġcry":2386,"Ġcust":2387,"Ġcake":2388,"Ġcause":2389,"Ġcakes":2390,"Ġcards":2391,"Ġcrown":2392,"Ġcaught":2393,"Ġcrumbs":2394,"Ġcivil":2395,"âĢĻ!âĢĿ":2396,"ident":2397,"encil":2398,"Ġmis":2399,"Ġment":2400,"Ġmet":2401,"Ġmark":2402,"Ġmiss":2403,"Ġmaster":2404,"Ġmiles":2405,"Ġled":2406,"Ġlau":2407,"Ġlost":2408,"Ġloudly":2409,"Ġdin":2410,"Ġdot":2411,"Ġdri":2412,"Ġdull":2413,"Ġfight":2414,"Ġfish":2415,"Ġfree":2416,"Ġfair":2417,"Ġfond":2418,"Ġfaster":2419,"Ġfron":2420,"Ġfolded":2421,"Ġsad":2422,"Ġsavage":2423,"asy":2424,"Ġheld":2425,"ising":2426,"ĠâĢľâĢĺ":2427,"arm":2428,"lew":2429,"ord":2430,"orto":2431,"orus":2432,"liged":2433,"ath":2434,"ater":2435,"ated":2436,"Ġgently":2437,"Ġnumber":2438,"Ġnatural":2439,"sever":2440,"seem":2441,"Ġbehead":2442,"Ġbelow":2443,"Ġbelong":2444,"anther":2445,"anation":2446,"Ġpin":2447,"Ġper":2448,"Ġpun":2449,"Ġprom":2450,"Ġpaw":2451,"Ġpity":2452,"Ġpick":2453,"Ġpressed":2454,"Ġpaws":2455,"Ġpocket":2456,"Ġpaper":2457,"Ġprizes":2458,"Ġplead":2459,"Ġhang":2460,"Ġthimble":2461,"Ġwashing":2462,"Ġhumb":2463,"Ġeff":2464,"Ġesc":2465,"Ġeasily":2466,"oose":2467,"âĢĶâĢĻâĢĿ":2468,"child":2469,"urried":2470,"ented":2471,"Ġune":2472,"Ġring":2473,"Ġrid":2474,"Ġrace":2475,"add":2476,"ading":2477,"key":2478,"Ġreal":2479,"Ġrelie":2480,"Ġresp":2481,"Ġreco":2482,"cked":2483,"eech":2484,"Ġnotion":2485,"ĠME":2486,"ĠMary":2487,"rims":2488,"Ġkill":2489,"Ġkick":2490,"ainting":2491,"three":2492,"illed":2493,"ĠHer":2494,"quite":2495,"Ġdog":2496,"Ġdogs":2497,"always":2498,"ĠDon":2499,"ĠDrawling":2500,"Ġneat":2501,"Ġneedn":2502,"Ġoutside":2503,"rog":2504,"roquet":2505,"rodu":2506,"ppose":2507,"Ġsuit":2508,"Ġsucceed":2509,"ioned":2510,"Ġlivery":2511,"Ġlived":2512,"Ġshore":2513,"Ġshort":2514,"Ġmeet":2515,"ourn":2516,"Ġquarre":2517,"Ġabs":2518,"Ġabove":2519,"ĠTell":2520,"ĠTime":2521,"ĠTorto":2522,"Ġstart":2523,"Ġstaring":2524,"Ġstairs":2525,"Ġstuff":2526,"Ġlikely":2527,"While":2528,"ĠCau":2529,"ĠSha":2530,"ĠSaid":2531,"ĠSeven":2532,"unate":2533,"uncom":2534,"unimportant":2535,"Ġground":2536,"antage":2537,"ests":2538,"esterday":2539,"Ġexcept":2540,"amp":2541,"Ġspect":2542,"Ġsplas":2543,"Ġmuchness":2544,"Ġvoices":2545,"Ġchoked":2546,"Ġchorus":2547,"oughly":2548,"Ġhowling":2549,"ledge":2550,"Ġposit":2551,"Ġalas":2552,"Ġalone":2553,"Ġmustard":2554,"istake":2555,"Ġshaking":2556,"Ġcourage":2557,"ĠFirst":2558,"ĠFrench":2559,"Ġshoulders":2560,"ĠWho":2561,"Ġlonger":2562,"aging":2563,"aglet":2564,"Ġyaw":2565,"Ġhanded":2566,"otherwise":2567,"Ġlegs":2568,"ends":2569,"ĠAfter":2570,"ĠLat":2571,"ĠLong":2572,"Ġcatch":2573,"Ġdears":2574,"Ġwaist":2575,"ĠPanther":2576,"Ġhurt":2577,"Ġunfort":2578,"Ġbegins":2579,"Ġfinding":2580,"Ġremarking":2581,"Ġclos":2582,"planation":2583,"Ġfloor":2584,"Ġreading":2585,"Ġsorts":2586,"Ġslate":2587,"els":2588,"ĠEaglet":2589,"ĠWhere":2590,"Ġbrought":2591,"Ġproper":2592,"Ġrepeating":2593,"Ġsnail":2594,"Ġguests":2595,"Ġearth":2596,"autiously":2597,"clock":2598,"soon":2599,"acles":2600,"ressing":2601,"Ġlesson":2602,"Ġfootman":2603,"Ġelbow":2604,"Ġswallow":2605,"Ġsmaller":2606,"appear":2607,"appeared":2608,"Ġwanted":2609,"Ġfollows":2610,"Ġrules":2611,"Ġremarks":2612,"Ġimportant":2613,"Ġimpossible":2614,"Ġsounds":2615,"Ġbeautif":2616,"Ġpassion":2617,"Ġpassage":2618,"Ġjoined":2619,"Ġdirections":2620,"_,âĢĻâĢĿ":2621,"Ġtimid":2622,"Ġinstance":2623,"Ġinstead":2624,"Ġturns":2625,"Ġlistening":2626,"Once":2627,"evening":2628,"looked":2629,"Ġtails":2630,"Ġsign":2631,"Ġmove":2632,"Ġmoving":2633,"Ġmoved":2634,"Ġgeneral":2635,"themselves":2636,"Ġanswered":2637,"Ġgrinned":2638,"conversation":2639,"poison":2640,"Ġdeclare":2641,"Ġholding":2642,"going":2643,"Ġchecked":2644,"Ġhoping":2645,"Ġroses":2646,"Ġattending":2647,"Ġjumping":2648,"Ġorder":2649,"Ġconfused":2650,"Ġconfusion":2651,"avy":2652,"growing":2653,"ixed":2654,"turning":2655,"ĠOwl":2656,"Ġtrump":2657,"Ġbreathe":2658,"ssibly":2659,"Ġconsidered":2660,"Ġconsidering":2661,"ĠBeautiful":2662,"_âĢĶâĢĻ":2663,"felt":2664,"glass":2665,"Ġedge":2666,"Ġsentence":2667,"Ġcrash":2668,"Ġhunting":2669,"Ġhungry":2670,"Ġgravely":2671,"emptuous":2672,"Ġguessed":2673,"Ġaccoun":2674,"Ġverses":2675,"Ġtelescop":2676,"Ġmuttering":2677,"Ġprison":2678,"Ġpictures":2679,"Ġanimals":2680,"Ġforgetting":2681,"Ġsulky":2682,"Ġviolently":2683,"changed":2684,"piece":2685,"ĠQuadrille":2686,"Ġobliged":2687,"Ġtossing":2688,"Ġmusic":2689,"Ġlady":2690,"Ġfigure":2691,"Ġnursing":2692,"Ġnibbling":2693,"Ġpattering":2694,"Ġpeeped":2695,"Ġhoarse":2696,"Ġofficers":2697,"Ġpointing":2698,"Ġuncomfortable":2699,"Ġsettled":2700,"Ġimmediately":2701,"Ġexpecting":2702,"Consider":2703,"Everybody":2704,"Thank":2705,"called":2706,"puzz":2707,"winkle":2708,"Ġtucked":2709,"Ġalive":2710,"Ġcandle":2711,"Ġmentioned":2712,"Ġdoth":2713,"Ġpleaded":2714,"Ġhanging":2715,"Ġeffect":2716,"Ġescape":2717,"Ġrespect":2718,"Ġsucceeded":2719,"ĠTortoise":2720,"ĠCaucus":2721,"Ġspectacles":2722,"Ġunfortunate":2723,"Ġtrumpet":2724,"):":2725,");":2726,")âĢĶâĢľ":2727,",âĢĻ":2728,".âĢĶ":2729,"?âĢĻâĢĿ":2730,"AR":2731,"Adv":2732,"Bea":2733,"Can":2734,"DR":2735,"Does":2736,"Everything":2737,"Found":2738,"Go":2739,"Get":2740,"HE":2741,"King":2742,"Keep":2743,"Last":2744,"May":2745,"March":2746,"ND":2747,"Pre":2748,"Poor":2749,"Rea":2750,"Sh":2751,"Sp":2752,"Some":2753,"Soup":2754,"Serpent":2755,"Seven":2756,"Silence":2757,"Tre":2758,"Tell":2759,"Two":2760,"Twinkle":2761,"US":2762,"Un":2763,"Up":2764,"Ugh":2765,"Uglif":2766,"Wow":2767,"With":2768,"Wake":2769,"Where":2770,"Your":2771,"_:":2772,"_âĢĶâĢĿ":2773,"ax":2774,"ais":2775,"aves":2776,"ault":2777,"bur":2778,"bour":2779,"bish":2780,"back":2781,"bread":2782,"baby":2783,"cer":2784,"cha":2785,"car":2786,"cle":2787,"cor":2788,"cur":2789,"creat":2790,"croquet":2791,"dw":2792,"ded":2793,"des":2794,"dream":2795,"drun":2796,"either":2797,"epper":2798,"fr":2799,"fall":2800,"found":2801,"face":2802,"fright":2803,"flow":2804,"fits":2805,"fetch":2806,"folded":2807,"fanc":2808,"filled":2809,"gly":2810,"ghed":2811,"gular":2812,"him":2813,"hist":2814,"hurried":2815,"ier":2816,"ili":2817,"iver":2818,"ipp":2819,"iving":2820,"ipped":2821,"jury":2822,"jump":2823,"kn":2824,"kes":2825,"kind":2826,"kily":2827,"lid":2828,"land":2829,"later":2830,"mor":2831,"makes":2832,"making":2833,"mushroom":2834,"moved":2835,"mmer":2836,"mitted":2837,"nat":2838,"nes":2839,"nur":2840,"nam":2841,"over":2842,"obe":2843,"occ":2844,"ogra":2845,"pr":2846,"pot":2847,"pers":2848,"past":2849,"pick":2850,"paws":2851,"pute":2852,"please":2853,"present":2854,"painting":2855,"rith":2856,"rab":2857,"ram":2858,"rance":2859,"rup":2860,"sm":2861,"sn":2862,"sal":2863,"sort":2864,"sure":2865,"sold":2866,"sently":2867,"sult":2868,"surpr":2869,"silence":2870,"tr":2871,"tw":2872,"tse":2873,"tly":2874,"till":2875,"teen":2876,"tast":2877,"tling":2878,"tail":2879,"temper":2880,"tip":2881,"trodu":2882,"uce":2883,"ually":2884,"uded":2885,"vo":2886,"vent":2887,"viol":2888,"were":2889,"want":2890,"window":2891,"watch":2892,"yst":2893,"ze":2894,"Ġve":2895,"Ġill":2896,"ĠNow":2897,"Ġtou":2898,"Ġtall":2899,"Ġtreat":2900,"Ġturtle":2901,"Ġtakes":2902,"Ġtale":2903,"Ġax":2904,"Ġact":2905,"Ġago":2906,"Ġse":2907,"Ġsk":2908,"Ġser":2909,"Ġsen":2910,"Ġsell":2911,"Ġsending":2912,"ining":2913,"ines":2914,"inary":2915,"oured":2916,"Ġwet":2917,"Ġwink":2918,"Ġwom":2919,"Ġwag":2920,"Ġwide":2921,"Ġwine":2922,"Ġweak":2923,"Ġwretched":2924,"itation":2925,"itions":2926,"itated":2927,"ndo":2928,"eror":2929,"erable":2930,"erret":2931,"erci":2932,"Ġocc":2933,"âĢľâĢĻ":2934,"half":2935,"happ":2936,"haven":2937,"happy":2938,"hamed":2939,"reme":2940,"reak":2941,"Ġbad":2942,"Ġbir":2943,"Ġbite":2944,"Ġbody":2945,"Ġbark":2946,"Ġblew":2947,"Ġbreak":2948,"Ġtones":2949,"Ġcir":2950,"Ġcau":2951,"Ġcart":2952,"Ġcup":2953,"Ġcool":2954,"Ġcoup":2955,"Ġcoll":2956,"Ġcond":2957,"Ġcrying":2958,"Ġcaused":2959,"Ġcrims":2960,"Ġcautiously":2961,"âĢĻâĢĶ":2962,"eng":2963,"ening":2964,"enough":2965,"enny":2966,"lly":2967,"lling":2968,"llent":2969,"Ġma":2970,"Ġmon":2971,"Ġmere":2972,"Ġmil":2973,"Ġmess":2974,"Ġmod":2975,"Ġmile":2976,"Ġmeek":2977,"Ġmourn":2978,"Ġmistake":2979,"Ġmixed":2980,"cellent":2981,"Ġlaw":2982,"Ġline":2983,"Ġlaid":2984,"Ġlap":2985,"Ġlaz":2986,"Ġdanc":2987,"Ġdigging":2988,"Ġdais":2989,"once":2990,"onqu":2991,"Ġfit":2992,"Ġfif":2993,"Ġfam":2994,"Ġfather":2995,"Ġfine":2996,"Ġfoun":2997,"Ġfav":2998,"Ġfash":2999,"Ġfaint":3000,"Ġsand":3001,"Ġsalt":3002,"Ġsang":3003,"Ġsauce":3004,"asion":3005,"ashed":3006,"Ġheart":3007,"isit":3008,"ises":3009,"isable":3010,"ower":3011,"aris":3012,"arrow":3013,"legged":3014,"leaves":3015,"orter":3016,"orth":3017,"oroughly":3018,"orcar":3019,"lives":3020,"living":3021,"Ġink":3022,"Ġintrodu":3023,"atching":3024,"Ġgidd":3025,"Ġgoose":3026,"Ġgiving":3027,"Ġnor":3028,"Ġnarrow":3029,"sec":3030,"see":3031,"semb":3032,"Ġbear":3033,"Ġbesid":3034,"Ġbeasts":3035,"aning":3036,"anter":3037,"anting":3038,"anches":3039,"anced":3040,"Ġpat":3041,"Ġpur":3042,"Ġparch":3043,"Ġpull":3044,"Ġpause":3045,"Ġpatiently":3046,"Ġpencil":3047,"Ġpanting":3048,"otting":3049,"otic":3050,"Ġthro":3051,"Ġthous":3052,"Ġthoroughly":3053,"vered":3054,"verse":3055,"verdict":3056,"sting":3057,"stly":3058,"stant":3059,"step":3060,"stupid":3061,"Ġwash":3062,"Ġwasting":3063,"ldron":3064,"uth":3065,"Ġhit":3066,"Ġhot":3067,"ghing":3068,"Ġele":3069,"Ġeasy":3070,"Ġashamed":3071,"Ġassemb":3072,"esides":3073,"urred":3074,"Ġsoft":3075,"Ġsobbing":3076,"Ġugly":3077,"Ġundo":3078,"etween":3079,"Ġro":3080,"Ġrow":3081,"Ġrust":3082,"Ġrush":3083,"Ġrap":3084,"Ġridd":3085,"Ġroy":3086,"adv":3087,"ades":3088,"Ġatom":3089,"tern":3090,"ters":3091,"tered":3092,"Ġwithin":3093,"These":3094,"Ġred":3095,"Ġreturned":3096,"irring":3097,"Ġanno":3098,"Ġanxious":3099,"Ġnote":3100,"ĠMiss":3101,"ĠMorcar":3102,"ria":3103,"rier":3104,"toe":3105,"top":3106,"iment":3107,"queer":3108,"ably":3109,"Ġupset":3110,"ĠDuck":3111,"elled":3112,"Ġneigh":3113,"geho":3114,"Ġknot":3115,"Ġknife":3116,"Ġsun":3117,"Ġsummer":3118,"Ġlie":3119,"Ġlives":3120,"Ġshill":3121,"Ġshorter":3122,"Ġthistle":3123,"Ġjar":3124,"Ġjaws":3125,"ounds":3126,"ĠTh":3127,"Ġwhatever":3128,"Ġstru":3129,"Ġstoop":3130,"Ġstretched":3131,"Ġstamp":3132,"Ġknows":3133,"Ġknowing":3134,"Ġknowledge":3135,"ocking":3136,"Ġnoise":3137,"Ġthoughts":3138,"ĠCrab":3139,"ĠConqu":3140,"Ġvar":3141,"Ġoffer":3142,"Ġsomewhere":3143,"oming":3144,"ung":3145,"hantly":3146,"usion":3147,"ersault":3148,"next":3149,"neath":3150,"nestly":3151,"onely":3152,"Ġwhose":3153,"ulous":3154,"Ġyours":3155,"ared":3156,"phy":3157,"Ġexper":3158,"Ġexplanation":3159,"Ġexcellent":3160,"amine":3161,"Ġworse":3162,"linging":3163,"Ġspoon":3164,"Ġspeech":3165,"Ġtwenty":3166,"ured":3167,"Ġfeather":3168,"race":3169,"ract":3170,"raord":3171,"Ġchoice":3172,"Ġchose":3173,"Ġconcer":3174,"Ġconstant":3175,"Ġpossibly":3176,"Ġalread":3177,"Ġalso":3178,"Ġalarm":3179,"isted":3180,"istling":3181,"forehead":3182,"Ġnowhere":3183,"Ġshaped":3184,"ication":3185,"arty":3186,"behind":3187,"irely":3188,"ĠWhile":3189,"ĠWhich":3190,"Ġaround":3191,"Ġlonged":3192,"Ġplate":3193,"Ġplates":3194,"Ġusing":3195,"Ġafterwards":3196,"ages":3197,"agine":3198,"rowful":3199,"Ġyesterday":3200,"perhaps":3201,"perfectly":3202,"Ġcurled":3203,"Ġlasted":3204,"Ġputting":3205,"Ġremain":3206,"Ġremoved":3207,"Ġremained":3208,"hedgeho":3209,"onderland":3210,"Ġmanner":3211,"Ġleaning":3212,"upon":3213,"upset":3214,"ĠAll":3215,"Ġdoors":3216,"ected":3217,"Ġcatching":3218,"ations":3219,"Ġdays":3220,"ĠPat":3221,"ĠPray":3222,"ĠParis":3223,"Ġtells":3224,"Ġtelling":3225,"Ġchanging":3226,"Ġchanges":3227,"Ġunpleas":3228,"Ġunfolded":3229,"Ġunhappy":3230,"Ġcomes":3231,"Ġundertone":3232,"Ġunderneath":3233,"Ġclock":3234,"Ġclaws":3235,"Ġpleasure":3236,"However":3237,"Nobody":3238,"eated":3239,"ively":3240,"Ġtreading":3241,"Ġwonderful":3242,"Ġgrowl":3243,"ief":3244,"place":3245,"plenty":3246,"Ġsmile":3247,"Ġwrote":3248,"Ġflat":3249,"Ġflapp":3250,"Ġpebb":3251,"tains":3252,"Ġuseful":3253,"ĠWith":3254,"ĠWhen":3255,"Ġwalking":3256,"Ġbrown":3257,"Ġbranches":3258,"Ġbecame":3259,"Ġproved":3260,"Ġprodu":3261,"Ġproceed":3262,"Ġevening":3263,"Ġsnatch":3264,"ertainly":3265,"Ġcomp":3266,"Ġcomfort":3267,"Ġcomfits":3268,"Ġfeeble":3269,"Ġearls":3270,"Ġearnestly":3271,"ushion":3272,"many":3273,"Ġwatching":3274,"Ġwatched":3275,"acc":3276,"Ġfootstep":3277,"Ġanger":3278,"Ġplaying":3279,"CHOR":3280,"bbed":3281,"Ġtrick":3282,"Ġtriump":3283,"retching":3284,"yourself":3285,"Ġsmallest":3286,"course":3287,"Ġwants":3288,"Ġbusy":3289,"Ġrude":3290,"Ġrubbing":3291,"Ġcontemptuous":3292,"Ġcourtiers":3293,"Ġremarkable":3294,"Ġadvance":3295,"Ġadvantage":3296,"Ġadvisable":3297,"Ġscroll":3298,"Ġletter":3299,"Ġlearning":3300,"Ġnames":3301,"Ġwhiskers":3302,"Ġwherever":3303,"Ġdirected":3304,"Ġdirectly":3305,"days":3306,"uckily":3307,"Ġtrotting":3308,"Ġtruth":3309,"Ġapples":3310,"Ġhurriedly":3311,"Ġpuzzling":3312,"Ġsneeze":3313,"Ġsneezes":3314,"Only":3315,"examine":3316,"speak":3317,"something":3318,"umbled":3319,"umbria":3320,"Ġstopped":3321,"Ġsigned":3322,"Ġsisters":3323,"Ġmatters":3324,"lets":3325,"Ġkeeping":3326,"cont":3327,"sentence":3328,"Ġsinging":3329,"Ġsingers":3330,"Ġmostly":3331,"Ġdistant":3332,"Ġfurther":3333,"Ġfurrow":3334,"Ġpigs":3335,"aughter":3336,"Ġplaces":3337,"Ġopening":3338,"Ġlearnt":3339,"cupbo":3340,"ĠNorth":3341,"Ġverdict":3342,"Ġsimply":3343,"Ġserpents":3344,"Ġbroke":3345,"Ġcheered":3346,"Ġcarrying":3347,"Ġcares":3348,"Ġcarefully":3349,"Ġdishes":3350,"Ġnicely":3351,"Ġpersisted":3352,"Ġhasn":3353,"âĢĶâĢĺ_":3354,"Ġraven":3355,"Ġraving":3356,"Ġraised":3357,"Ġattempt":3358,"Ġconfusing":3359,"Ġtrembled":3360,"Ġfancied":3361,"Ġfeelings":3362,"Ġlobster":3363,"Ġhedgehogs":3364,"Ġdoubtful":3365,"Ġdoubtfully":3366,"grand":3367,"Ġdeny":3368,"Ġdenied":3369,"Ġkindly":3370,"Ġshutting":3371,"Ġusually":3372,"Ġdelighted":3373,"Ġdelightful":3374,"Ġpieces":3375,"gloves":3376,"Ġeditions":3377,"Ġhate":3378,"Ġseveral":3379,"Ġsighing":3380,"Ġblasts":3381,"Ġgirls":3382,"Ġbeating":3383,"Ġshowing":3384,"Ġlovely":3385,"Ġcrossed":3386,"Ġswimming":3387,"Ġaccident":3388,"coat":3389,"people":3390,"sudden":3391,"teenth":3392,"wondering":3393,"ĠVII":3394,"Ġentang":3395,"Ġentirely":3396,"Ġsqueez":3397,"Ġsqueaking":3398,"Ġmuttered":3399,"Ġfunny":3400,"likely":3401,"Ġinvited":3402,"Ġinvitation":3403,"Ġthrowing":3404,"Ġrattling":3405,"Ġsulkily":3406,"Ġextreme":3407,"Ġextraord":3408,"Ġpersonal":3409,"Ġsecondly":3410,"Explain":3411,"Exactly":3412,"hority":3413,"myself":3414,"nearly":3415,"running":3416,"ucumber":3417,"writing":3418,"whether":3419,"worth":3420,"Ġtasted":3421,"Ġwandering":3422,"Ġwildly":3423,"remark":3424,"Ġbarrowful":3425,"Ġbank":3426,"Ġlocks":3427,"Ġdesper":3428,"Ġfriends":3429,"answer":3430,"Ġknocking":3431,"rolled":3432,"Ġquickly":3433,"Ġconcluded":3434,"Ġconclusion":3435,"Ġencouraging":3436,"Ġsmiling":3437,"Ġsmiled":3438,"Ġbringing":3439,"beginning":3440,"executed":3441,"confusion":3442,"INK":3443,"Suppose":3444,"bye":3445,"doesn":3446,"eyes":3447,"Ġtumbling":3448,"Ġagree":3449,"Ġslipped":3450,"replied":3451,"Ġcoax":3452,"Ġcustody":3453,"Ġmiserable":3454,"Ġmissed":3455,"Ġdinner":3456,"Ġfront":3457,"several":3458,"seemed":3459,"Ġbeheaded":3460,"Ġbelongs":3461,"Ġpinched":3462,"Ġperfectly":3463,"Ġpicked":3464,"Ġhumbly":3465,"Ġuneasily":3466,"Ġrelief":3467,"Ġrecovered":3468,"Ġneatly":3469,"Ġquarrelling":3470,"Ġabsurd":3471,"Ġstarted":3472,"Ġsplashing":3473,"Ġposition":3474,"Ġyawning":3475,"ĠLatitude":3476,"ĠLongitude":3477,"Ġwaistcoat":3478,"Ġclosed":3479,"Ġbeautifully":3480,"Ġsignif":3481,"Ġtelescope":3482,"Ġprisoner":3483,"puzzling":3484,"Beautiful":3485,"DRINK":3486,"Presently":3487,"Really":3488,"Speak":3489,"Treacle":3490,"Uglification":3491,"bishop":3492,"creatures":3493,"dwin":3494,"drunk":3495,"frame":3496,"fancy":3497,"history":3498,"nurse":3499,"namented":3500,"occasion":3501,"ography":3502,"proud":3503,"rupting":3504,"soldiers":3505,"twist":3506,"tempered":3507,"Ġtaller":3508,"Ġturtles":3509,"Ġsensation":3510,"Ġwoman":3511,"errets":3512,"ercia":3513,"Ġoccurred":3514,"Ġbird":3515,"Ġcauldron":3516,"Ġcollected":3517,"Ġcrimson":3518,"ennyworth":3519,"Ġmonth":3520,"Ġmerely":3521,"Ġmilk":3522,"Ġmessages":3523,"Ġmoder":3524,"Ġmeekly":3525,"Ġdancing":3526,"Ġfountains":3527,"Ġfashion":3528,"Ġsaucepan":3529,"Ġgiddy":3530,"Ġbesides":3531,"Ġpurring":3532,"Ġparchment":3533,"Ġthroat":3534,"Ġthousand":3535,"Ġassembled":3536,"Ġrapidly":3537,"Ġriddles":3538,"Ġroyal":3539,"Ġannoy":3540,"Ġneighbour":3541,"Ġstruck":3542,"Ġstamping":3543,"ĠConqueror":3544,"Ġexperiment":3545,"Ġconcert":3546,"Ġalready":3547,"Ġunpleasant":3548,"Ġpebbles":3549,"Ġfootsteps":3550,"CHORUS":3551,"Ġtriumphantly":3552,"cupboards":3553,"ĠNorthumbria":3554,"Ġentangled":3555,"Ġextremely":3556,"Ġextraordinary":3557,"Ġcoaxing":3558}